{
  "version": "1.0",
  "truncation": null,
  "padding": null,
  "added_tokens": [
    {
      "id": 0,
      "content": "[UNK]",
      "single_word": false,
      "lstrip": false,
      "rstrip": false,
      "normalized": false,
      "special": true
    },
    {
      "id": 1,
      "content": "[PAD]",
      "single_word": false,
      "lstrip": false,
      "rstrip": false,
      "normalized": false,
      "special": true
    }
  ],
  "normalizer": null,
  "pre_tokenizer": {
    "type": "Whitespace"
  },
  "post_processor": null,
  "decoder": null,
  "model": {
    "type": "BPE",
    "dropout": null,
    "unk_token": "[UNK]",
    "continuing_subword_prefix": null,
    "end_of_word_suffix": null,
    "fuse_unk": false,
    "vocab": {
      "[UNK]": 0,
      "[PAD]": 1,
      "!": 2,
      "\"": 3,
      "#": 4,
      "&": 5,
      "'": 6,
      "(": 7,
      ")": 8,
      ",": 9,
      "-": 10,
      ".": 11,
      "/": 12,
      "0": 13,
      "1": 14,
      "2": 15,
      "3": 16,
      "4": 17,
      "5": 18,
      "6": 19,
      "7": 20,
      "8": 21,
      "9": 22,
      ":": 23,
      ";": 24,
      ">": 25,
      "?": 26,
      "A": 27,
      "B": 28,
      "C": 29,
      "D": 30,
      "E": 31,
      "F": 32,
      "G": 33,
      "H": 34,
      "I": 35,
      "J": 36,
      "K": 37,
      "L": 38,
      "M": 39,
      "N": 40,
      "O": 41,
      "P": 42,
      "Q": 43,
      "R": 44,
      "S": 45,
      "T": 46,
      "U": 47,
      "V": 48,
      "W": 49,
      "X": 50,
      "Y": 51,
      "Z": 52,
      "a": 53,
      "b": 54,
      "c": 55,
      "d": 56,
      "e": 57,
      "f": 58,
      "g": 59,
      "h": 60,
      "i": 61,
      "j": 62,
      "k": 63,
      "l": 64,
      "m": 65,
      "n": 66,
      "o": 67,
      "p": 68,
      "q": 69,
      "r": 70,
      "s": 71,
      "t": 72,
      "u": 73,
      "v": 74,
      "w": 75,
      "x": 76,
      "y": 77,
      "z": 78,
      "}": 79,
      "°": 80,
      "Æ": 81,
      "ä": 82,
      "æ": 83,
      "ç": 84,
      "è": 85,
      "é": 86,
      "ë": 87,
      "ï": 88,
      "ñ": 89,
      "ö": 90,
      "th": 91,
      "in": 92,
      "the": 93,
      "an": 94,
      "re": 95,
      "ed": 96,
      "er": 97,
      "on": 98,
      "en": 99,
      "at": 100,
      "ou": 101,
      "and": 102,
      "of": 103,
      "st": 104,
      "or": 105,
      "ar": 106,
      "ing": 107,
      "al": 108,
      "as": 109,
      "es": 110,
      "to": 111,
      "he": 112,
      "it": 113,
      "is": 114,
      "ad": 115,
      "se": 116,
      "le": 117,
      "ly": 118,
      "ic": 119,
      "om": 120,
      "wh": 121,
      "be": 122,
      "gh": 123,
      "no": 124,
      "ld": 125,
      "ac": 126,
      "was": 127,
      "that": 128,
      "im": 129,
      "ent": 130,
      "ve": 131,
      "had": 132,
      "id": 133,
      "ll": 134,
      "ion": 135,
      "ow": 136,
      "ch": 137,
      "am": 138,
      "we": 139,
      "wi": 140,
      "ght": 141,
      "ver": 142,
      "ur": 143,
      "un": 144,
      "li": 145,
      "ut": 146,
      "ab": 147,
      "for": 148,
      "ro": 149,
      "ter": 150,
      "ce": 151,
      "with": 152,
      "de": 153,
      "fr": 154,
      "ir": 155,
      "all": 156,
      "lo": 157,
      "ag": 158,
      "--": 159,
      "mo": 160,
      "ess": 161,
      "ous": 162,
      "ain": 163,
      "pe": 164,
      "ay": 165,
      "red": 166,
      "me": 167,
      "ne": 168,
      "his": 169,
      "sh": 170,
      "ri": 171,
      "not": 172,
      "oun": 173,
      "ome": 174,
      "ich": 175,
      "fe": 176,
      "ould": 177,
      "ul": 178,
      "my": 179,
      "ke": 180,
      "out": 181,
      "which": 182,
      "one": 183,
      "The": 184,
      "ap": 185,
      "su": 186,
      "from": 187,
      "ct": 188,
      "il": 189,
      "ard": 190,
      "ge": 191,
      "con": 192,
      "od": 193,
      "were": 194,
      "but": 195,
      "ther": 196,
      "ol": 197,
      "ave": 198,
      "ight": 199,
      "ast": 200,
      "our": 201,
      "qu": 202,
      "res": 203,
      "man": 204,
      "thing": 205,
      "pl": 206,
      "te": 207,
      "aw": 208,
      "ind": 209,
      "ant": 210,
      "ex": 211,
      "now": 212,
      "by": 213,
      "ound": 214,
      "ill": 215,
      "po": 216,
      "per": 217,
      "some": 218,
      "ough": 219,
      "tr": 220,
      "em": 221,
      "ist": 222,
      "ation": 223,
      "us": 224,
      "up": 225,
      "so": 226,
      "ate": 227,
      "bl": 228,
      "et": 229,
      "fo": 230,
      "str": 231,
      "him": 232,
      "have": 233,
      "could": 234,
      "gr": 235,
      "they": 236,
      "ust": 237,
      "if": 238,
      "ity": 239,
      "are": 240,
      "ace": 241,
      "old": 242,
      "ose": 243,
      "ev": 244,
      "gre": 245,
      "um": 246,
      "sc": 247,
      "ame": 248,
      "end": 249,
      "own": 250,
      "ong": 251,
      "ig": 252,
      "ide": 253,
      "ack": 254,
      "ak": 255,
      "this": 256,
      "ble": 257,
      "sp": 258,
      "ish": 259,
      "do": 260,
      "ers": 261,
      "tim": 262,
      "ive": 263,
      "ok": 264,
      "art": 265,
      "very": 266,
      "there": 267,
      "co": 268,
      "been": 269,
      "here": 270,
      "when": 271,
      "ious": 272,
      "less": 273,
      "able": 274,
      "av": 275,
      "cl": 276,
      "af": 277,
      "would": 278,
      "pro": 279,
      "pt": 280,
      "wor": 281,
      "its": 282,
      "ck": 283,
      "op": 284,
      "know": 285,
      "ies": 286,
      "tain": 287,
      "It": 288,
      "ear": 289,
      "their": 290,
      "what": 291,
      "ph": 292,
      "com": 293,
      "br": 294,
      "Th": 295,
      "bo": 296,
      "light": 297,
      "ally": 298,
      "ted": 299,
      "fore": 300,
      "them": 301,
      "ure": 302,
      "der": 303,
      "ep": 304,
      "more": 305,
      "dis": 306,
      "other": 307,
      "gl": 308,
      "pr": 309,
      "ts": 310,
      "cr": 311,
      "any": 312,
      "ite": 313,
      "seem": 314,
      "ath": 315,
      "ss": 316,
      "He": 317,
      "ci": 318,
      "over": 319,
      "au": 320,
      "like": 321,
      "age": 322,
      "who": 323,
      "ought": 324,
      "most": 325,
      "ness": 326,
      "ark": 327,
      "where": 328,
      "thr": 329,
      "did": 330,
      "ions": 331,
      "about": 332,
      "ance": 333,
      "ment": 334,
      "ass": 335,
      "des": 336,
      "cur": 337,
      "spe": 338,
      "way": 339,
      "night": 340,
      "go": 341,
      "only": 342,
      "est": 343,
      "iv": 344,
      "ream": 345,
      "ful": 346,
      "ence": 347,
      "great": 348,
      "ach": 349,
      "new": 350,
      "into": 351,
      "fl": 352,
      "sel": 353,
      "ange": 354,
      "ort": 355,
      "ward": 356,
      "mad": 357,
      "seemed": 358,
      "ud": 359,
      "you": 360,
      "came": 361,
      "before": 362,
      "pres": 363,
      "mon": 364,
      "than": 365,
      "urn": 366,
      "time": 367,
      "In": 368,
      "even": 369,
      "wo": 370,
      "after": 371,
      "..": 372,
      "ated": 373,
      "hor": 374,
      "ine": 375,
      "cre": 376,
      "through": 377,
      "form": 378,
      "ings": 379,
      "ake": 380,
      "pre": 381,
      "saw": 382,
      "those": 383,
      "ens": 384,
      "cer": 385,
      "though": 386,
      "down": 387,
      "ho": 388,
      "things": 389,
      "air": 390,
      "led": 391,
      "self": 392,
      "An": 393,
      "must": 394,
      "ang": 395,
      "act": 396,
      "men": 397,
      "long": 398,
      "ical": 399,
      "ob": 400,
      "di": 401,
      "ice": 402,
      "ved": 403,
      "ue": 404,
      "ick": 405,
      "ren": 406,
      "sed": 407,
      "ever": 408,
      "let": 409,
      "tre": 410,
      "part": 411,
      "wind": 412,
      "might": 413,
      "ond": 414,
      "how": 415,
      "Wh": 416,
      "dream": 417,
      "ater": 418,
      "far": 419,
      "nor": 420,
      "cor": 421,
      "clo": 422,
      "aid": 423,
      "can": 424,
      "ouse": 425,
      "found": 426,
      "sm": 427,
      "side": 428,
      "ared": 429,
      "ip": 430,
      "day": 431,
      "el": 432,
      "fin": 433,
      "tal": 434,
      "known": 435,
      "ten": 436,
      "again": 437,
      "see": 438,
      "ped": 439,
      "ary": 440,
      "dist": 441,
      "ile": 442,
      "ink": 443,
      "look": 444,
      "arter": 445,
      "ign": 446,
      "she": 447,
      "strange": 448,
      "den": 449,
      "come": 450,
      "hu": 451,
      "ple": 452,
      "ror": 453,
      "vis": 454,
      "iz": 455,
      "ail": 456,
      "whose": 457,
      "igh": 458,
      "certain": 459,
      "low": 460,
      "mor": 461,
      "black": 462,
      "land": 463,
      "mu": 464,
      "cent": 465,
      "read": 466,
      "ie": 467,
      "ible": 468,
      "place": 469,
      "house": 470,
      "ber": 471,
      "tle": 472,
      "well": 473,
      "turn": 474,
      "head": 475,
      "such": 476,
      "sin": 477,
      "And": 478,
      "ans": 479,
      "ning": 480,
      "under": 481,
      "There": 482,
      "never": 483,
      "fir": 484,
      "ened": 485,
      "ree": 486,
      "llow": 487,
      "dark": 488,
      "ting": 489,
      "upon": 490,
      "thought": 491,
      "these": 492,
      "que": 493,
      "ty": 494,
      "made": 495,
      "back": 496,
      "her": 497,
      "ily": 498,
      "On": 499,
      "car": 500,
      "Carter": 501,
      "ot": 502,
      "ley": 503,
      "beg": 504,
      "ied": 505,
      "much": 506,
      "call": 507,
      "ry": 508,
      "sur": 509,
      "lit": 510,
      "cle": 511,
      "atter": 512,
      "door": 513,
      "still": 514,
      "bey": 515,
      "les": 516,
      "year": 517,
      "ey": 518,
      "seen": 519,
      "off": 520,
      "anc": 521,
      "rest": 522,
      "arch": 523,
      "ations": 524,
      "ial": 525,
      "knew": 526,
      "heard": 527,
      "But": 528,
      "ise": 529,
      "gu": 530,
      "ather": 531,
      "cas": 532,
      "ft": 533,
      "ste": 534,
      "lt": 535,
      "beyond": 536,
      "first": 537,
      "Then": 538,
      "vo": 539,
      "too": 540,
      "As": 541,
      "two": 542,
      "dr": 543,
      "ef": 544,
      "rible": 545,
      "tri": 546,
      "then": 547,
      "last": 548,
      "room": 549,
      "hand": 550,
      "int": 551,
      "world": 552,
      "ures": 553,
      "sing": 554,
      "bod": 555,
      "cted": 556,
      "many": 557,
      "once": 558,
      "ked": 559,
      "ins": 560,
      "ner": 561,
      "hap": 562,
      "ently": 563,
      "wall": 564,
      "told": 565,
      "az": 566,
      "bed": 567,
      "flo": 568,
      "set": 569,
      "near": 570,
      "hal": 571,
      "ause": 572,
      "every": 573,
      "real": 574,
      "Ar": 575,
      "bu": 576,
      "human": 577,
      "atch": 578,
      "ned": 579,
      "stone": 580,
      "anci": 581,
      "col": 582,
      "cour": 583,
      "sound": 584,
      "imp": 585,
      "will": 586,
      "They": 587,
      "tow": 588,
      "je": 589,
      "ven": 590,
      "almost": 591,
      "sub": 592,
      "earth": 593,
      "horror": 594,
      "ished": 595,
      "...": 596,
      "ory": 597,
      "ser": 598,
      "ows": 599,
      "city": 600,
      "yet": 601,
      "high": 602,
      "ular": 603,
      "ene": 604,
      "ably": 605,
      "coun": 606,
      "face": 607,
      "har": 608,
      "mind": 609,
      "said": 610,
      "fear": 611,
      "pass": 612,
      "ane": 613,
      "get": 614,
      "life": 615,
      "ild": 616,
      "son": 617,
      "ling": 618,
      "nat": 619,
      "while": 620,
      "ult": 621,
      "since": 622,
      "away": 623,
      "ced": 624,
      "ds": 625,
      "att": 626,
      "left": 627,
      "tell": 628,
      "something": 629,
      "half": 630,
      "hill": 631,
      "ods": 632,
      "years": 633,
      "sl": 634,
      "little": 635,
      "aces": 636,
      "felt": 637,
      "appe": 638,
      "ged": 639,
      "ru": 640,
      "reg": 641,
      "abo": 642,
      "ves": 643,
      "poss": 644,
      "ject": 645,
      "mar": 646,
      "mal": 647,
      "ash": 648,
      "ancient": 649,
      "tem": 650,
      "used": 651,
      "ors": 652,
      "say": 653,
      "curious": 654,
      "ian": 655,
      "ways": 656,
      "moon": 657,
      "mer": 658,
      "arr": 659,
      "amp": 660,
      "oc": 661,
      "outh": 662,
      "cause": 663,
      "bur": 664,
      "ents": 665,
      "oul": 666,
      "ye": 667,
      "inde": 668,
      "tered": 669,
      "began": 670,
      "sy": 671,
      "ict": 672,
      "fright": 673,
      "kind": 674,
      "ingly": 675,
      "times": 676,
      "ca": 677,
      "think": 678,
      "sho": 679,
      "aking": 680,
      "ition": 681,
      "ction": 682,
      "min": 683,
      "med": 684,
      "sk": 685,
      "sil": 686,
      "without": 687,
      "cond": 688,
      "ull": 689,
      "eyes": 690,
      "hide": 691,
      "toward": 692,
      "fam": 693,
      "just": 694,
      "rel": 695,
      "ities": 696,
      "nothing": 697,
      "ug": 698,
      "ving": 699,
      "small": 700,
      "stre": 701,
      "reach": 702,
      "bro": 703,
      "name": 704,
      "bet": 705,
      "above": 706,
      "rit": 707,
      "press": 708,
      "At": 709,
      "cri": 710,
      "cont": 711,
      "cess": 712,
      "ours": 713,
      "open": 714,
      "body": 715,
      "eng": 716,
      "ire": 717,
      "won": 718,
      "around": 719,
      "ross": 720,
      "We": 721,
      "mom": 722,
      "stud": 723,
      "unknown": 724,
      "hideous": 725,
      "went": 726,
      "gen": 727,
      "ster": 728,
      "turned": 729,
      "spo": 730,
      "ars": 731,
      "ship": 732,
      "This": 733,
      "aint": 734,
      "aving": 735,
      "Ward": 736,
      "moun": 737,
      "That": 738,
      "ks": 739,
      "beh": 740,
      "three": 741,
      "try": 742,
      "os": 743,
      "king": 744,
      "liar": 745,
      "inter": 746,
      "Wil": 747,
      "ific": 748,
      "gro": 749,
      "terrible": 750,
      "fre": 751,
      "sun": 752,
      "because": 753,
      "dreams": 754,
      "right": 755,
      "app": 756,
      "dou": 757,
      "sol": 758,
      "later": 759,
      "sight": 760,
      "ages": 761,
      "ix": 762,
      "lar": 763,
      "blo": 764,
      "sea": 765,
      "close": 766,
      "ined": 767,
      "wild": 768,
      "plan": 769,
      "sto": 770,
      "dec": 771,
      "ground": 772,
      "find": 773,
      "sle": 774,
      "rep": 775,
      "leg": 776,
      "course": 777,
      "rem": 778,
      "ained": 779,
      "ople": 780,
      "For": 781,
      "cu": 782,
      "vast": 783,
      "ths": 784,
      "secre": 785,
      "odd": 786,
      "moment": 787,
      "vel": 788,
      "looked": 789,
      "got": 790,
      "ither": 791,
      "quest": 792,
      "indeed": 793,
      "ason": 794,
      "feet": 795,
      "bor": 796,
      "ating": 797,
      "floor": 798,
      "ited": 799,
      "ised": 800,
      "utter": 801,
      "may": 802,
      "val": 803,
      "ys": 804,
      "log": 805,
      "ague": 806,
      "himself": 807,
      "ered": 808,
      "whol": 809,
      "ha": 810,
      "has": 811,
      "ia": 812,
      "xt": 813,
      "another": 814,
      "few": 815,
      "ual": 816,
      "among": 817,
      "ones": 818,
      "owed": 819,
      "memor": 820,
      "work": 821,
      "haps": 822,
      "ert": 823,
      "beli": 824,
      "pan": 825,
      "till": 826,
      "ung": 827,
      "sign": 828,
      "cept": 829,
      "dead": 830,
      "bled": 831,
      "doub": 832,
      "ib": 833,
      "ering": 834,
      "held": 835,
      "aby": 836,
      "space": 837,
      "When": 838,
      "rid": 839,
      "aring": 840,
      "oung": 841,
      "behind": 842,
      "Mar": 843,
      "cal": 844,
      "gest": 845,
      "dered": 846,
      "ants": 847,
      "All": 848,
      "past": 849,
      "shad": 850,
      "soon": 851,
      "iend": 852,
      "ces": 853,
      "mit": 854,
      "cap": 855,
      "follow": 856,
      "being": 857,
      "Ne": 858,
      "ff": 859,
      "mem": 860,
      "cho": 861,
      "vers": 862,
      "peri": 863,
      "bre": 864,
      "ele": 865,
      "lay": 866,
      "line": 867,
      "hel": 868,
      "use": 869,
      "ms": 870,
      "tor": 871,
      "enough": 872,
      "people": 873,
      "walls": 874,
      "My": 875,
      "ham": 876,
      "fully": 877,
      "pur": 878,
      "always": 879,
      "both": 880,
      "town": 881,
      "Cur": 882,
      "matter": 883,
      "squ": 884,
      "alone": 885,
      "took": 886,
      "myself": 887,
      "gone": 888,
      "stru": 889,
      "aken": 890,
      "queer": 891,
      "mountain": 892,
      "monstr": 893,
      "against": 894,
      "dim": 895,
      "vered": 896,
      "outside": 897,
      "ats": 898,
      "whis": 899,
      "consc": 900,
      "spec": 901,
      "object": 902,
      "cy": 903,
      "same": 904,
      "young": 905,
      "deep": 906,
      "bas": 907,
      "dif": 908,
      "sum": 909,
      "fle": 910,
      "par": 911,
      "war": 912,
      "ank": 913,
      "ense": 914,
      "ched": 915,
      "present": 916,
      "fur": 917,
      "gener": 918,
      "conscious": 919,
      "fol": 920,
      "ient": 921,
      "watch": 922,
      "step": 923,
      "plain": 924,
      "whole": 925,
      "spect": 926,
      "wood": 927,
      "monstrous": 928,
      "mist": 929,
      "heav": 930,
      "cry": 931,
      "che": 932,
      "make": 933,
      "rock": 934,
      "ape": 935,
      "eness": 936,
      "wal": 937,
      "ments": 938,
      "ith": 939,
      "pri": 940,
      "inc": 941,
      "brought": 942,
      "Dr": 943,
      "wen": 944,
      "window": 945,
      "ae": 946,
      "vague": 947,
      "tom": 948,
      "large": 949,
      "oth": 950,
      "became": 951,
      "bling": 952,
      "dden": 953,
      "port": 954,
      "ons": 955,
      "org": 956,
      "feren": 957,
      "called": 958,
      "Gre": 959,
      "care": 960,
      "road": 961,
      "death": 962,
      "book": 963,
      "possible": 964,
      "Curwen": 965,
      "perhaps": 966,
      "What": 967,
      "fall": 968,
      "gave": 969,
      "ping": 970,
      "tly": 971,
      "ints": 972,
      "lead": 973,
      "ided": 974,
      "ately": 975,
      "Stre": 976,
      "og": 977,
      "stand": 978,
      "pos": 979,
      "dire": 980,
      "clear": 981,
      "sent": 982,
      "vent": 983,
      "imag": 984,
      "ended": 985,
      "sky": 986,
      "Street": 987,
      "ude": 988,
      "ually": 989,
      "aced": 990,
      "antic": 991,
      "Some": 992,
      "ased": 993,
      "father": 994,
      "pu": 995,
      "water": 996,
      "however": 997,
      "voice": 998,
      "His": 999,
      "dri": 1000,
      "ural": 1001,
      "cord": 1002,
      "appeared": 1003,
      "No": 1004,
      "lear": 1005,
      "uring": 1006,
      "ute": 1007,
      "person": 1008,
      "evil": 1009,
      "Mr": 1010,
      "pict": 1011,
      "wa": 1012,
      "ying": 1013,
      "inte": 1014,
      "oud": 1015,
      "sudden": 1016,
      "finite": 1017,
      "case": 1018,
      "vol": 1019,
      "ident": 1020,
      "normal": 1021,
      "along": 1022,
      "list": 1023,
      "bid": 1024,
      "hy": 1025,
      "vi": 1026,
      "amid": 1027,
      "each": 1028,
      "pect": 1029,
      "street": 1030,
      "ns": 1031,
      "others": 1032,
      "ali": 1033,
      "friend": 1034,
      "Char": 1035,
      "ggest": 1036,
      "iness": 1037,
      "ides": 1038,
      "char": 1039,
      "suggest": 1040,
      "lett": 1041,
      "Willett": 1042,
      "cir": 1043,
      "ken": 1044,
      "pol": 1045,
      "und": 1046,
      "ously": 1047,
      "sure": 1048,
      "aves": 1049,
      "ps": 1050,
      "need": 1051,
      "aught": 1052,
      "Charles": 1053,
      "Of": 1054,
      "ga": 1055,
      "ost": 1056,
      "imal": 1057,
      "ceiv": 1058,
      "faint": 1059,
      "gn": 1060,
      "sens": 1061,
      "ines": 1062,
      "white": 1063,
      "mot": 1064,
      "ized": 1065,
      "wholly": 1066,
      "19": 1067,
      "bar": 1068,
      "second": 1069,
      "ghoul": 1070,
      "letter": 1071,
      "sleep": 1072,
      "iously": 1073,
      "home": 1074,
      "take": 1075,
      "keep": 1076,
      "covered": 1077,
      "windows": 1078,
      "aren": 1079,
      "West": 1080,
      "start": 1081,
      "quite": 1082,
      "So": 1083,
      "ade": 1084,
      "ird": 1085,
      "bes": 1086,
      "eas": 1087,
      "ioned": 1088,
      "unt": 1089,
      "fect": 1090,
      "exist": 1091,
      "days": 1092,
      "contin": 1093,
      "itself": 1094,
      "morning": 1095,
      "build": 1096,
      "reached": 1097,
      "mark": 1098,
      "pit": 1099,
      "remem": 1100,
      "below": 1101,
      "roof": 1102,
      "should": 1103,
      "point": 1104,
      "inted": 1105,
      "qui": 1106,
      "cked": 1107,
      "Ark": 1108,
      "hard": 1109,
      "pal": 1110,
      "prof": 1111,
      "good": 1112,
      "pow": 1113,
      "viv": 1114,
      "ative": 1115,
      "atures": 1116,
      "aged": 1117,
      "remo": 1118,
      "across": 1119,
      "cell": 1120,
      "desp": 1121,
      "Arkham": 1122,
      "ured": 1123,
      "owing": 1124,
      "sup": 1125,
      "sometimes": 1126,
      "Ones": 1127,
      "colle": 1128,
      "nameless": 1129,
      "fter": 1130,
      "gods": 1131,
      "ier": 1132,
      "sort": 1133,
      "grew": 1134,
      "abyss": 1135,
      "full": 1136,
      "writ": 1137,
      "add": 1138,
      "feel": 1139,
      "steps": 1140,
      "twi": 1141,
      "mere": 1142,
      "conne": 1143,
      "five": 1144,
      "stor": 1145,
      "airs": 1146,
      "ield": 1147,
      "tried": 1148,
      "After": 1149,
      "inst": 1150,
      "ony": 1151,
      "search": 1152,
      "ches": 1153,
      "north": 1154,
      "doubt": 1155,
      "Old": 1156,
      "bene": 1157,
      "mis": 1158,
      "ination": 1159,
      "clim": 1160,
      "stood": 1161,
      "next": 1162,
      "kept": 1163,
      "illed": 1164,
      "Great": 1165,
      "cast": 1166,
      "four": 1167,
      "ices": 1168,
      "ically": 1169,
      "green": 1170,
      "scream": 1171,
      "legend": 1172,
      "iced": 1173,
      "boy": 1174,
      "youth": 1175,
      "stead": 1176,
      "dro": 1177,
      "var": 1178,
      "child": 1179,
      "within": 1180,
      "cons": 1181,
      "foot": 1182,
      "beneath": 1183,
      "least": 1184,
      "forth": 1185,
      "shall": 1186,
      "St": 1187,
      "ring": 1188,
      "asp": 1189,
      "ism": 1190,
      "distur": 1191,
      "du": 1192,
      "having": 1193,
      "put": 1194,
      "peak": 1195,
      "ayed": 1196,
      "shed": 1197,
      "anything": 1198,
      "hills": 1199,
      "round": 1200,
      "tes": 1201,
      "frag": 1202,
      "dog": 1203,
      "fami": 1204,
      "bul": 1205,
      "gold": 1206,
      "hold": 1207,
      "often": 1208,
      "resp": 1209,
      "awn": 1210,
      "horrible": 1211,
      "formed": 1212,
      "ize": 1213,
      "pression": 1214,
      "aut": 1215,
      "dam": 1216,
      "fig": 1217,
      "jo": 1218,
      "table": 1219,
      "terror": 1220,
      "grey": 1221,
      "iew": 1222,
      "happ": 1223,
      "cold": 1224,
      "ra": 1225,
      "your": 1226,
      "thin": 1227,
      "serv": 1228,
      "mid": 1229,
      "slo": 1230,
      "tit": 1231,
      "view": 1232,
      "repe": 1233,
      "glimp": 1234,
      ".\"": 1235,
      "fer": 1236,
      "giv": 1237,
      "grave": 1238,
      "frightful": 1239,
      "wonder": 1240,
      "hours": 1241,
      "sense": 1242,
      "lled": 1243,
      "arded": 1244,
      "exc": 1245,
      "interest": 1246,
      "hous": 1247,
      "mag": 1248,
      "num": 1249,
      "reason": 1250,
      "change": 1251,
      "appro": 1252,
      "comple": 1253,
      "distant": 1254,
      "culiar": 1255,
      "folk": 1256,
      "lim": 1257,
      "taken": 1258,
      "ature": 1259,
      "anti": 1260,
      "ancy": 1261,
      "done": 1262,
      "hall": 1263,
      "none": 1264,
      "ening": 1265,
      "sem": 1266,
      "idence": 1267,
      "peculiar": 1268,
      "zz": 1269,
      "ont": 1270,
      "ext": 1271,
      "spoke": 1272,
      "aver": 1273,
      "rather": 1274,
      "vill": 1275,
      "inct": 1276,
      "top": 1277,
      "rose": 1278,
      "shri": 1279,
      "myster": 1280,
      "Ake": 1281,
      "ahead": 1282,
      "ging": 1283,
      "narr": 1284,
      "whe": 1285,
      "stro": 1286,
      "tained": 1287,
      "ances": 1288,
      "New": 1289,
      "Akeley": 1290,
      "En": 1291,
      "pap": 1292,
      "aled": 1293,
      "expl": 1294,
      "pers": 1295,
      "family": 1296,
      "secret": 1297,
      "eld": 1298,
      "hear": 1299,
      "aster": 1300,
      "places": 1301,
      "centur": 1302,
      "shock": 1303,
      "familiar": 1304,
      "Fr": 1305,
      "One": 1306,
      "sw": 1307,
      "stop": 1308,
      "ney": 1309,
      "natural": 1310,
      "houses": 1311,
      "ric": 1312,
      "descri": 1313,
      "visit": 1314,
      "ailed": 1315,
      "ma": 1316,
      "ran": 1317,
      "sim": 1318,
      "smo": 1319,
      "save": 1320,
      "incl": 1321,
      "ord": 1322,
      "als": 1323,
      "ween": 1324,
      "test": 1325,
      "ister": 1326,
      "hands": 1327,
      "memory": 1328,
      "reco": 1329,
      "ese": 1330,
      "aph": 1331,
      "words": 1332,
      "phys": 1333,
      "differen": 1334,
      "tou": 1335,
      "toge": 1336,
      "sever": 1337,
      "speak": 1338,
      "anged": 1339,
      "despite": 1340,
      "together": 1341,
      "bri": 1342,
      "bus": 1343,
      "ris": 1344,
      "urch": 1345,
      "ilst": 1346,
      "alien": 1347,
      "cut": 1348,
      "gal": 1349,
      "dep": 1350,
      "lore": 1351,
      "ulf": 1352,
      "tru": 1353,
      "prob": 1354,
      "looking": 1355,
      "continu": 1356,
      "To": 1357,
      "You": 1358,
      "da": 1359,
      "dread": 1360,
      "return": 1361,
      "why": 1362,
      "pose": 1363,
      "doct": 1364,
      "farm": 1365,
      "else": 1366,
      "organ": 1367,
      "several": 1368,
      "cum": 1369,
      "wr": 1370,
      "ality": 1371,
      "sounds": 1372,
      "fact": 1373,
      "rew": 1374,
      "oman": 1375,
      "accoun": 1376,
      "ceed": 1377,
      "del": 1378,
      "river": 1379,
      "tales": 1380,
      "visible": 1381,
      "between": 1382,
      "give": 1383,
      "ore": 1384,
      "cks": 1385,
      "nature": 1386,
      "Gil": 1387,
      "ah": 1388,
      "late": 1389,
      "soul": 1390,
      "esome": 1391,
      "beings": 1392,
      "noticed": 1393,
      "amidst": 1394,
      "Be": 1395,
      "during": 1396,
      "fant": 1397,
      "fish": 1398,
      "olog": 1399,
      "usu": 1400,
      "wide": 1401,
      "reve": 1402,
      "onic": 1403,
      "living": 1404,
      "det": 1405,
      "ement": 1406,
      "brain": 1407,
      "flash": 1408,
      "shew": 1409,
      "singular": 1410,
      "wish": 1411,
      "stars": 1412,
      "ional": 1413,
      "lost": 1414,
      "shap": 1415,
      "key": 1416,
      "astic": 1417,
      "appear": 1418,
      "bing": 1419,
      "hid": 1420,
      "rum": 1421,
      "wise": 1422,
      "ze": 1423,
      "ates": 1424,
      "whilst": 1425,
      "poor": 1426,
      "pho": 1427,
      "trees": 1428,
      "better": 1429,
      "burn": 1430,
      "ago": 1431,
      "ket": 1432,
      "ending": 1433,
      "sinister": 1434,
      "shadow": 1435,
      "Gilman": 1436,
      "hast": 1437,
      "van": 1438,
      "ase": 1439,
      "omin": 1440,
      "noon": 1441,
      "ress": 1442,
      "greater": 1443,
      "trem": 1444,
      "talk": 1445,
      "passed": 1446,
      "occas": 1447,
      "ral": 1448,
      "ery": 1449,
      "ried": 1450,
      "anted": 1451,
      "coming": 1452,
      "evening": 1453,
      "guess": 1454,
      "grotes": 1455,
      "learned": 1456,
      "recogn": 1457,
      "fac": 1458,
      "gle": 1459,
      "alt": 1460,
      "lights": 1461,
      "nearly": 1462,
      "narrow": 1463,
      "cross": 1464,
      "ls": 1465,
      "mean": 1466,
      "trans": 1467,
      "spir": 1468,
      "blood": 1469,
      "Marsh": 1470,
      "cult": 1471,
      "don": 1472,
      "sa": 1473,
      "reli": 1474,
      "fort": 1475,
      "met": 1476,
      "rif": 1477,
      "selves": 1478,
      "fresh": 1479,
      "followed": 1480,
      "quiet": 1481,
      "Now": 1482,
      "hab": 1483,
      "hist": 1484,
      "itive": 1485,
      "These": 1486,
      "cursed": 1487,
      "ledge": 1488,
      "iver": 1489,
      "mi": 1490,
      "wit": 1491,
      "also": 1492,
      "hell": 1493,
      "omed": 1494,
      "velo": 1495,
      "antly": 1496,
      "scr": 1497,
      "scar": 1498,
      "Inn": 1499,
      "books": 1500,
      "bers": 1501,
      "ek": 1502,
      "leng": 1503,
      "mess": 1504,
      "pa": 1505,
      "slight": 1506,
      "tern": 1507,
      "front": 1508,
      "ousand": 1509,
      "ilt": 1510,
      "ards": 1511,
      "ists": 1512,
      "bot": 1513,
      "cial": 1514,
      "ives": 1515,
      "steep": 1516,
      "help": 1517,
      "general": 1518,
      "merely": 1519,
      "Nor": 1520,
      "thy": 1521,
      "incre": 1522,
      "stones": 1523,
      "stairs": 1524,
      "ask": 1525,
      "ution": 1526,
      "shud": 1527,
      "suc": 1528,
      "madness": 1529,
      "distance": 1530,
      "suddenly": 1531,
      "Al": 1532,
      "Lake": 1533,
      "cat": 1534,
      "free": 1535,
      "pain": 1536,
      "va": 1537,
      "atic": 1538,
      "strang": 1539,
      "parts": 1540,
      "apparen": 1541,
      "Engl": 1542,
      "por": 1543,
      "adv": 1544,
      "whom": 1545,
      "abs": 1546,
      "forgot": 1547,
      "dev": 1548,
      "usion": 1549,
      "umbling": 1550,
      "lessly": 1551,
      "early": 1552,
      "specim": 1553,
      "With": 1554,
      "bol": 1555,
      "camp": 1556,
      "espe": 1557,
      "bered": 1558,
      "experi": 1559,
      "scene": 1560,
      "comm": 1561,
      "common": 1562,
      "grotesque": 1563,
      "Jo": 1564,
      "TH": 1565,
      "ai": 1566,
      "sion": 1567,
      "thick": 1568,
      "ining": 1569,
      "ret": 1570,
      "abor": 1571,
      "frantic": 1572,
      "shape": 1573,
      "trave": 1574,
      "region": 1575,
      "wondered": 1576,
      "haun": 1577,
      "approach": 1578,
      "either": 1579,
      "mus": 1580,
      "really": 1581,
      "order": 1582,
      "posed": 1583,
      "trad": 1584,
      "iful": 1585,
      "occur": 1586,
      "yellow": 1587,
      "frequ": 1588,
      "believ": 1589,
      "heavy": 1590,
      "mass": 1591,
      "rad": 1592,
      "run": 1593,
      "sat": 1594,
      "beaut": 1595,
      "west": 1596,
      "live": 1597,
      "conf": 1598,
      "party": 1599,
      "ready": 1600,
      "struct": 1601,
      "crypt": 1602,
      "ghouls": 1603,
      "length": 1604,
      "Am": 1605,
      "God": 1606,
      "thousand": 1607,
      "ison": 1608,
      "church": 1609,
      "ulpt": 1610,
      "concer": 1611,
      "grand": 1612,
      "opened": 1613,
      "deser": 1614,
      "country": 1615,
      "complete": 1616,
      "eve": 1617,
      "field": 1618,
      "six": 1619,
      "recall": 1620,
      "record": 1621,
      "vest": 1622,
      "deli": 1623,
      "graph": 1624,
      "igin": 1625,
      "darkness": 1626,
      "ibly": 1627,
      "hidden": 1628,
      "18": 1629,
      "bs": 1630,
      "bal": 1631,
      "sn": 1632,
      "slow": 1633,
      "short": 1634,
      "expe": 1635,
      "hope": 1636,
      "Whate": 1637,
      "finally": 1638,
      "valley": 1639,
      "doctor": 1640,
      "hour": 1641,
      "mater": 1642,
      "nam": 1643,
      "swe": 1644,
      "ues": 1645,
      "attered": 1646,
      "pered": 1647,
      "super": 1648,
      "exp": 1649,
      "sculpt": 1650,
      "fled": 1651,
      "cannot": 1652,
      "smouth": 1653,
      "mountains": 1654,
      "power": 1655,
      "asphe": 1656,
      "different": 1657,
      "Innsmouth": 1658,
      "17": 1659,
      "race": 1660,
      "comp": 1661,
      "brid": 1662,
      "tempt": 1663,
      "born": 1664,
      "viol": 1665,
      "Su": 1666,
      "fire": 1667,
      "gard": 1668,
      "state": 1669,
      "origin": 1670,
      "aying": 1671,
      "aste": 1672,
      "blasphe": 1673,
      "ruins": 1674,
      "sym": 1675,
      "silent": 1676,
      "If": 1677,
      "Pro": 1678,
      "Sh": 1679,
      "bad": 1680,
      "ech": 1681,
      "gulf": 1682,
      "ni": 1683,
      "thor": 1684,
      "refle": 1685,
      "ences": 1686,
      "oured": 1687,
      "itions": 1688,
      "itude": 1689,
      "level": 1690,
      "olph": 1691,
      "cially": 1692,
      "remain": 1693,
      "dogs": 1694,
      "From": 1695,
      "Br": 1696,
      "ges": 1697,
      "tu": 1698,
      "tent": 1699,
      "libr": 1700,
      "fell": 1701,
      "iled": 1702,
      "iles": 1703,
      "upper": 1704,
      "shel": 1705,
      "surface": 1706,
      "given": 1707,
      "whether": 1708,
      "probably": 1709,
      "expected": 1710,
      "cli": 1711,
      "mare": 1712,
      "sand": 1713,
      "sour": 1714,
      "south": 1715,
      "ics": 1716,
      "become": 1717,
      "except": 1718,
      "aked": 1719,
      "knowledge": 1720,
      "prints": 1721,
      "desc": 1722,
      "prep": 1723,
      "angu": 1724,
      "died": 1725,
      "anced": 1726,
      "azed": 1727,
      "elder": 1728,
      "Bl": 1729,
      "lur": 1730,
      "aven": 1731,
      "prim": 1732,
      "dust": 1733,
      "wished": 1734,
      "best": 1735,
      "local": 1736,
      "trou": 1737,
      "cover": 1738,
      "cloud": 1739,
      "craw": 1740,
      "nightmare": 1741,
      "broken": 1742,
      "ixed": 1743,
      "material": 1744,
      "pped": 1745,
      "sought": 1746,
      "oned": 1747,
      "abnormal": 1748,
      "themselves": 1749,
      "pleas": 1750,
      "horrors": 1751,
      "study": 1752,
      "consciousness": 1753,
      "direction": 1754,
      "streets": 1755,
      "bit": 1756,
      "cats": 1757,
      "ded": 1758,
      "ired": 1759,
      "lone": 1760,
      "ses": 1761,
      "height": 1762,
      "mother": 1763,
      "strong": 1764,
      "ified": 1765,
      "bore": 1766,
      "nerv": 1767,
      "believe": 1768,
      "ceived": 1769,
      "twilight": 1770,
      "usual": 1771,
      "Ed": 1772,
      "Rand": 1773,
      "fut": 1774,
      "hund": 1775,
      "idently": 1776,
      "uncle": 1777,
      "trace": 1778,
      "umbled": 1779,
      "closed": 1780,
      "smic": 1781,
      "effect": 1782,
      "stret": 1783,
      "planet": 1784,
      "secrets": 1785,
      "picture": 1786,
      "Whateley": 1787,
      "hundred": 1788,
      "Se": 1789,
      "bound": 1790,
      "faces": 1791,
      "mous": 1792,
      "ench": 1793,
      "ider": 1794,
      "lies": 1795,
      "fellow": 1796,
      "ility": 1797,
      "aws": 1798,
      "box": 1799,
      "final": 1800,
      "medi": 1801,
      "building": 1802,
      "cellar": 1803,
      "legends": 1804,
      "especially": 1805,
      "dig": 1806,
      "lum": 1807,
      "lying": 1808,
      "timate": 1809,
      "produ": 1810,
      "glass": 1811,
      "forms": 1812,
      "longer": 1813,
      "cases": 1814,
      "finitely": 1815,
      "various": 1816,
      "scarce": 1817,
      "forgotten": 1818,
      "deserted": 1819,
      "equ": 1820,
      "gy": 1821,
      "ger": 1822,
      "hair": 1823,
      "lan": 1824,
      "ming": 1825,
      "thro": 1826,
      "asc": 1827,
      "lied": 1828,
      "forbid": 1829,
      "moved": 1830,
      "neigh": 1831,
      "speech": 1832,
      "host": 1833,
      "Once": 1834,
      "begin": 1835,
      "tower": 1836,
      "spot": 1837,
      "decided": 1838,
      "direct": 1839,
      "detail": 1840,
      "Den": 1841,
      "fif": 1842,
      "gain": 1843,
      "gate": 1844,
      "lines": 1845,
      "viously": 1846,
      "yr": 1847,
      "leave": 1848,
      "agged": 1849,
      "shar": 1850,
      "somewhat": 1851,
      "older": 1852,
      "scient": 1853,
      "obsc": 1854,
      "lower": 1855,
      "temple": 1856,
      "elect": 1857,
      "whispered": 1858,
      "De": 1859,
      "Man": 1860,
      "ax": 1861,
      "fit": 1862,
      "mill": 1863,
      "force": 1864,
      "emon": 1865,
      "desert": 1866,
      "flu": 1867,
      "morbid": 1868,
      "possess": 1869,
      "letters": 1870,
      "remember": 1871,
      "Randolph": 1872,
      "Ab": 1873,
      "Dan": 1874,
      "Hill": 1875,
      "Or": 1876,
      "path": 1877,
      "snow": 1878,
      "oft": 1879,
      "stri": 1880,
      "entered": 1881,
      "develo": 1882,
      "tran": 1883,
      "aff": 1884,
      "compan": 1885,
      "talked": 1886,
      "blackness": 1887,
      "regular": 1888,
      "incred": 1889,
      "village": 1890,
      "fantastic": 1891,
      "aim": 1892,
      "atory": 1893,
      "lling": 1894,
      "wife": 1895,
      "quick": 1896,
      "exam": 1897,
      "grow": 1898,
      "bring": 1899,
      "pressed": 1900,
      "eye": 1901,
      "built": 1902,
      "Cap": 1903,
      "Jose": 1904,
      "Re": 1905,
      "bour": 1906,
      "eper": 1907,
      "labor": 1908,
      "pat": 1909,
      "inary": 1910,
      "inner": 1911,
      "returned": 1912,
      "attempt": 1913,
      "alive": 1914,
      "accursed": 1915,
      "ters": 1916,
      "cosmic": 1917,
      "prom": 1918,
      "going": 1919,
      "rent": 1920,
      "surviv": 1921,
      "everything": 1922,
      "dimens": 1923,
      "safe": 1924,
      "cliff": 1925,
      "sharp": 1926,
      "athe": 1927,
      "cities": 1928,
      "drew": 1929,
      "gent": 1930,
      "sit": 1931,
      "sail": 1932,
      "lived": 1933,
      "termin": 1934,
      "ples": 1935,
      "afterward": 1936,
      "action": 1937,
      "carven": 1938,
      "caver": 1939,
      "peaks": 1940,
      "hellish": 1941,
      "Joseph": 1942,
      "Le": 1943,
      "Pr": 1944,
      "She": 1945,
      "band": 1946,
      "fash": 1947,
      "pie": 1948,
      "spl": 1949,
      "animal": 1950,
      "creatures": 1951,
      "osity": 1952,
      "repor": 1953,
      "signific": 1954,
      "period": 1955,
      "torch": 1956,
      "Mis": 1957,
      "kno": 1958,
      "lath": 1959,
      "ton": 1960,
      "itable": 1961,
      "cha": 1962,
      "chan": 1963,
      "changed": 1964,
      "meet": 1965,
      "metal": 1966,
      "showed": 1967,
      "asts": 1968,
      "grou": 1969,
      "spread": 1970,
      "aved": 1971,
      "glad": 1972,
      "priest": 1973,
      "police": 1974,
      "account": 1975,
      "library": 1976,
      "Ch": 1977,
      "fab": 1978,
      "filled": 1979,
      "langu": 1980,
      "pes": 1981,
      "size": 1982,
      "moder": 1983,
      "fee": 1984,
      "true": 1985,
      "grad": 1986,
      "proved": 1987,
      "farther": 1988,
      "bodies": 1989,
      "passage": 1990,
      "curiously": 1991,
      "occurred": 1992,
      "Bost": 1993,
      "cul": 1994,
      "cus": 1995,
      "main": 1996,
      "sor": 1997,
      "tive": 1998,
      "track": 1999,
      "cot": 2000,
      "hood": 2001,
      "corrid": 2002,
      "attic": 2003,
      "wait": 2004,
      "motion": 2005,
      "vestig": 2006,
      "King": 2007,
      "fancy": 2008,
      "latter": 2009,
      "mort": 2010,
      "mouth": 2011,
      "pen": 2012,
      "row": 2013,
      "ale": 2014,
      "impress": 2015,
      "loss": 2016,
      "locked": 2017,
      "necess": 2018,
      "features": 2019,
      "extr": 2020,
      "brick": 2021,
      "afternoon": 2022,
      "actual": 2023,
      "colum": 2024,
      "struck": 2025,
      "objects": 2026,
      "publ": 2027,
      "antiqu": 2028,
      "haunted": 2029,
      "Ammi": 2030,
      "prepared": 2031,
      "Boston": 2032,
      "aout": 2033,
      "rs": 2034,
      "ram": 2035,
      "rust": 2036,
      "stat": 2037,
      "stance": 2038,
      "aspect": 2039,
      "ises": 2040,
      "soci": 2041,
      "oked": 2042,
      "crow": 2043,
      "mental": 2044,
      "presence": 2045,
      "single": 2046,
      "cape": 2047,
      "walk": 2048,
      "leading": 2049,
      "happened": 2050,
      "titan": 2051,
      "touch": 2052,
      "vanished": 2053,
      "dwell": 2054,
      "rup": 2055,
      "vic": 2056,
      "yard": 2057,
      "escape": 2058,
      "leap": 2059,
      "move": 2060,
      "neare": 2061,
      "placed": 2062,
      "pointed": 2063,
      "blind": 2064,
      "spr": 2065,
      "preh": 2066,
      "surpr": 2067,
      "import": 2068,
      "blocks": 2069,
      "charac": 2070,
      "golden": 2071,
      "shrie": 2072,
      "bly": 2073,
      "dared": 2074,
      "iac": 2075,
      "rough": 2076,
      "angl": 2077,
      "asked": 2078,
      "ital": 2079,
      "idly": 2080,
      "exper": 2081,
      "exact": 2082,
      "istic": 2083,
      "evidently": 2084,
      "proper": 2085,
      "aze": 2086,
      "frightened": 2087,
      "pursu": 2088,
      "remote": 2089,
      "fragments": 2090,
      "figure": 2091,
      "scarcely": 2092,
      "obscure": 2093,
      "Pick": 2094,
      "stu": 2095,
      "whate": 2096,
      "ulous": 2097,
      "design": 2098,
      "huge": 2099,
      "begun": 2100,
      "remained": 2101,
      "question": 2102,
      "utterly": 2103,
      "until": 2104,
      "remembered": 2105,
      "continued": 2106,
      "specimens": 2107,
      "source": 2108,
      "nervous": 2109,
      "scientific": 2110,
      "laboratory": 2111,
      "whatever": 2112,
      "ban": 2113,
      "hop": 2114,
      "mir": 2115,
      "uct": 2116,
      "thar": 2117,
      "ouds": 2118,
      "weird": 2119,
      "terr": 2120,
      "ceased": 2121,
      "shun": 2122,
      "note": 2123,
      "resol": 2124,
      "former": 2125,
      "visions": 2126,
      "void": 2127,
      "oddly": 2128,
      "signs": 2129,
      "break": 2130,
      "clearly": 2131,
      "writing": 2132,
      "connected": 2133,
      "disturbed": 2134,
      "beauty": 2135,
      "slowly": 2136,
      ".'": 2137,
      "Per": 2138,
      "ny": 2139,
      "sli": 2140,
      "thir": 2141,
      "ann": 2142,
      "story": 2143,
      "seven": 2144,
      "feared": 2145,
      "teen": 2146,
      "awful": 2147,
      "expect": 2148,
      "empt": 2149,
      "primal": 2150,
      "preser": 2151,
      "partic": 2152,
      "guard": 2153,
      "brood": 2154,
      "sunset": 2155,
      "whisper": 2156,
      "watched": 2157,
      "imagination": 2158,
      "respond": 2159,
      "shocking": 2160,
      "stopped": 2161,
      "relief": 2162,
      "apparently": 2163,
      "forbidden": 2164,
      "Pickman": 2165,
      "II": 2166,
      "Nah": 2167,
      "cave": 2168,
      "ding": 2169,
      "flight": 2170,
      "furn": 2171,
      "mason": 2172,
      "tall": 2173,
      "woman": 2174,
      "recalled": 2175,
      "attle": 2176,
      "stal": 2177,
      "iment": 2178,
      "immedi": 2179,
      "cham": 2180,
      "chant": 2181,
      "week": 2182,
      "unts": 2183,
      "nel": 2184,
      "Their": 2185,
      "odour": 2186,
      "ety": 2187,
      "grown": 2188,
      "curi": 2189,
      "carved": 2190,
      "voices": 2191,
      "higher": 2192,
      "pictures": 2193,
      "roofs": 2194,
      "galley": 2195,
      "habit": 2196,
      "bottom": 2197,
      "Edward": 2198,
      "Ul": 2199,
      "fic": 2200,
      "hur": 2201,
      "ius": 2202,
      "lau": 2203,
      "mur": 2204,
      "mach": 2205,
      "oce": 2206,
      "sme": 2207,
      "twent": 2208,
      "wand": 2209,
      "aters": 2210,
      "star": 2211,
      "arm": 2212,
      "lest": 2213,
      "image": 2214,
      "uttered": 2215,
      "tering": 2216,
      "means": 2217,
      "conv": 2218,
      "quarter": 2219,
      "clouds": 2220,
      "following": 2221,
      "instant": 2222,
      "masonry": 2223,
      "Kad": 2224,
      "Not": 2225,
      "bir": 2226,
      "dwe": 2227,
      "pull": 2228,
      "vious": 2229,
      "xious": 2230,
      "lean": 2231,
      "bearing": 2232,
      "depart": 2233,
      "plic": 2234,
      "tele": 2235,
      "expression": 2236,
      "ears": 2237,
      "lands": 2238,
      "Only": 2239,
      "towers": 2240,
      "silence": 2241,
      "walked": 2242,
      "vaguely": 2243,
      "fallen": 2244,
      "192": 2245,
      "future": 2246,
      "modern": 2247,
      "dwelt": 2248,
      "cust": 2249,
      "fa": 2250,
      "hint": 2251,
      "jud": 2252,
      "link": 2253,
      "pse": 2254,
      "pill": 2255,
      "vac": 2256,
      "vir": 2257,
      "encoun": 2258,
      "ata": 2259,
      "stem": 2260,
      "aded": 2261,
      "whar": 2262,
      "beheld": 2263,
      "wel": 2264,
      "uni": 2265,
      "manner": 2266,
      "blue": 2267,
      "scri": 2268,
      "crumbling": 2269,
      "mentioned": 2270,
      "uded": 2271,
      "thoughts": 2272,
      "burst": 2273,
      "buried": 2274,
      "caused": 2275,
      "closely": 2276,
      "tomb": 2277,
      "started": 2278,
      "slope": 2279,
      "number": 2280,
      "papers": 2281,
      "century": 2282,
      "business": 2283,
      "shapes": 2284,
      "THE": 2285,
      "laugh": 2286,
      "Bar": 2287,
      "cro": 2288,
      "dy": 2289,
      "gar": 2290,
      "pip": 2291,
      "vap": 2292,
      "investig": 2293,
      "ising": 2294,
      "veget": 2295,
      "ching": 2296,
      "pean": 2297,
      "post": 2298,
      "trip": 2299,
      "reality": 2300,
      "marble": 2301,
      "solid": 2302,
      "position": 2303,
      "beside": 2304,
      "college": 2305,
      "servants": 2306,
      "public": 2307,
      "Nahum": 2308,
      "curiosity": 2309,
      "twenty": 2310,
      "Ear": 2311,
      "Po": 2312,
      "making": 2313,
      "pon": 2314,
      "rhy": 2315,
      "although": 2316,
      "ention": 2317,
      "ctic": 2318,
      "plane": 2319,
      "acked": 2320,
      "ively": 2321,
      "forest": 2322,
      "mighty": 2323,
      "corner": 2324,
      "otic": 2325,
      "standing": 2326,
      "circum": 2327,
      "gaunts": 2328,
      "mystery": 2329,
      "paper": 2330,
      "experience": 2331,
      "believed": 2332,
      "chaos": 2333,
      "By": 2334,
      "Me": 2335,
      "baf": 2336,
      "east": 2337,
      "echo": 2338,
      "fast": 2339,
      "non": 2340,
      "ote": 2341,
      "taking": 2342,
      "wri": 2343,
      "stir": 2344,
      "impression": 2345,
      "entire": 2346,
      "notes": 2347,
      "fered": 2348,
      "played": 2349,
      "explain": 2350,
      "claw": 2351,
      "preci": 2352,
      "system": 2353,
      "memories": 2354,
      "further": 2355,
      "existence": 2356,
      "consider": 2357,
      "glimpsed": 2358,
      "gardens": 2359,
      "Blake": 2360,
      "rhyth": 2361,
      "Jer": 2362,
      "eight": 2363,
      "ler": 2364,
      "pul": 2365,
      "tun": 2366,
      "edge": 2367,
      "outer": 2368,
      "aly": 2369,
      "ables": 2370,
      "ultimate": 2371,
      "myst": 2372,
      "quality": 2373,
      "tect": 2374,
      "ption": 2375,
      "word": 2376,
      "formation": 2377,
      "actually": 2378,
      "heads": 2379,
      "minds": 2380,
      "marve": 2381,
      "square": 2382,
      "marked": 2383,
      "supp": 2384,
      "devil": 2385,
      "Sir": 2386,
      "ior": 2387,
      "mine": 2388,
      "pping": 2389,
      "rap": 2390,
      "sides": 2391,
      "tic": 2392,
      "vain": 2393,
      "vings": 2394,
      "thered": 2395,
      "revel": 2396,
      "stream": 2397,
      "ories": 2398,
      "acles": 2399,
      "lie": 2400,
      "aband": 2401,
      "concl": 2402,
      "conceiv": 2403,
      "perfect": 2404,
      "lighted": 2405,
      "Here": 2406,
      "woods": 2407,
      "aughter": 2408,
      "pale": 2409,
      "profess": 2410,
      "truth": 2411,
      "history": 2412,
      "paused": 2413,
      "Danforth": 2414,
      ",\"": 2415,
      "ires": 2416,
      "uc": 2417,
      "waters": 2418,
      "thunder": 2419,
      "resem": 2420,
      "erous": 2421,
      "arre": 2422,
      "assu": 2423,
      "leaving": 2424,
      "agon": 2425,
      "fever": 2426,
      "aps": 2427,
      "plate": 2428,
      "endous": 2429,
      "idea": 2430,
      "clut": 2431,
      "didn": 2432,
      "iveness": 2433,
      "formul": 2434,
      "seek": 2435,
      "distinct": 2436,
      "strangely": 2437,
      "certainly": 2438,
      "firm": 2439,
      "attention": 2440,
      "shore": 2441,
      "remark": 2442,
      "shadows": 2443,
      "listened": 2444,
      "profound": 2445,
      "magic": 2446,
      "Joh": 2447,
      "Denis": 2448,
      "incredible": 2449,
      "ocean": 2450,
      ".,": 2451,
      "Even": 2452,
      "How": 2453,
      "caught": 2454,
      "dom": 2455,
      "faced": 2456,
      "gig": 2457,
      "rain": 2458,
      "rise": 2459,
      "waves": 2460,
      "third": 2461,
      "recent": 2462,
      "chance": 2463,
      "deal": 2464,
      "love": 2465,
      "mock": 2466,
      "meant": 2467,
      "ults": 2468,
      "conce": 2469,
      "illing": 2470,
      "sport": 2471,
      "obser": 2472,
      "clock": 2473,
      "izarre": 2474,
      "archa": 2475,
      "sett": 2476,
      "highly": 2477,
      "fears": 2478,
      "opening": 2479,
      "wholesome": 2480,
      "purpose": 2481,
      "summer": 2482,
      "onyx": 2483,
      "castle": 2484,
      "excited": 2485,
      "rising": 2486,
      "phosp": 2487,
      "spirit": 2488,
      "radi": 2489,
      "symbol": 2490,
      "language": 2491,
      "prehens": 2492,
      "Kadath": 2493,
      "Pe": 2494,
      "bizarre": 2495,
      "cand": 2496,
      "div": 2497,
      "dawn": 2498,
      "gas": 2499,
      "psy": 2500,
      "xet": 2501,
      "bearded": 2502,
      "chim": 2503,
      "forced": 2504,
      "rot": 2505,
      "agre": 2506,
      "apert": 2507,
      "growing": 2508,
      "coll": 2509,
      "bru": 2510,
      "hores": 2511,
      "rooms": 2512,
      "malign": 2513,
      "base": 2514,
      "folks": 2515,
      "carefully": 2516,
      "easy": 2517,
      "written": 2518,
      "added": 2519,
      "midnight": 2520,
      "depths": 2521,
      "daemon": 2522,
      "frequent": 2523,
      "Prov": 2524,
      "phosphores": 2525,
      "Cy": 2526,
      "kat": 2527,
      "lamp": 2528,
      "ook": 2529,
      "wich": 2530,
      "inn": 2531,
      "inside": 2532,
      "represent": 2533,
      "onom": 2534,
      "arse": 2535,
      "heal": 2536,
      "admit": 2537,
      "oused": 2538,
      "mechan": 2539,
      "convers": 2540,
      "desper": 2541,
      "special": 2542,
      "icked": 2543,
      "buildings": 2544,
      "storm": 2545,
      "revealed": 2546,
      "electric": 2547,
      "gentle": 2548,
      "cavern": 2549,
      "Miskat": 2550,
      "gigantic": 2551,
      "Miskatonic": 2552,
      "Ny": 2553,
      "damp": 2554,
      "fair": 2555,
      "gress": 2556,
      "kin": 2557,
      "lu": 2558,
      "waking": 2559,
      "alley": 2560,
      "bear": 2561,
      "acing": 2562,
      "play": 2563,
      "strug": 2564,
      "proport": 2565,
      "correspond": 2566,
      "tale": 2567,
      "cript": 2568,
      "Allen": 2569,
      "twist": 2570,
      "brief": 2571,
      "occasion": 2572,
      "message": 2573,
      "stretched": 2574,
      "Providence": 2575,
      "Other": 2576,
      "Sal": 2577,
      "Un": 2578,
      "cup": 2579,
      "range": 2580,
      "sick": 2581,
      "tin": 2582,
      "tur": 2583,
      "wing": 2584,
      "waste": 2585,
      "ref": 2586,
      "enath": 2587,
      "icate": 2588,
      "beam": 2589,
      "decl": 2590,
      "determin": 2591,
      "ctions": 2592,
      "uscript": 2593,
      "soph": 2594,
      "blast": 2595,
      "grass": 2596,
      "aft": 2597,
      "pract": 2598,
      "mention": 2599,
      "tense": 2600,
      "answ": 2601,
      "carried": 2602,
      "Asenath": 2603,
      "insist": 2604,
      "colour": 2605,
      "studied": 2606,
      "decad": 2607,
      "matters": 2608,
      "mistak": 2609,
      "damn": 2610,
      "repeated": 2611,
      "ordinary": 2612,
      "ceeded": 2613,
      "England": 2614,
      "Capt": 2615,
      "particular": 2616,
      "Jermy": 2617,
      "!\"": 2618,
      "Most": 2619,
      "bark": 2620,
      "cof": 2621,
      "glo": 2622,
      "hum": 2623,
      "hier": 2624,
      "ians": 2625,
      "laid": 2626,
      "mould": 2627,
      "inous": 2628,
      "seized": 2629,
      "lyph": 2630,
      "unseen": 2631,
      "ager": 2632,
      "shot": 2633,
      "pled": 2634,
      "discus": 2635,
      "horiz": 2636,
      "vision": 2637,
      "ief": 2638,
      "ancing": 2639,
      "drawn": 2640,
      "getting": 2641,
      "marvel": 2642,
      "broad": 2643,
      "versity": 2644,
      "specul": 2645,
      "diffic": 2646,
      "oglyph": 2647,
      "explic": 2648,
      "shewed": 2649,
      "shudder": 2650,
      "success": 2651,
      "Brown": 2652,
      "El": 2653,
      "Paw": 2654,
      "fasc": 2655,
      "la": 2656,
      "mixed": 2657,
      "oid": 2658,
      "san": 2659,
      "wan": 2660,
      "yed": 2661,
      "invol": 2662,
      "eds": 2663,
      "eral": 2664,
      "arctic": 2665,
      "uncan": 2666,
      "somehow": 2667,
      "cop": 2668,
      "class": 2669,
      "claim": 2670,
      "Those": 2671,
      "crown": 2672,
      "spected": 2673,
      "angle": 2674,
      "partly": 2675,
      "background": 2676,
      "condition": 2677,
      "chool": 2678,
      "persist": 2679,
      "simple": 2680,
      "photo": 2681,
      "stranger": 2682,
      "quickly": 2683,
      "rhythm": 2684,
      "plateau": 2685,
      "archaic": 2686,
      "hieroglyph": 2687,
      "Had": 2688,
      "bones": 2689,
      "dle": 2690,
      "etern": 2691,
      "fanci": 2692,
      "stren": 2693,
      "arri": 2694,
      "already": 2695,
      "associ": 2696,
      "entity": 2697,
      "chief": 2698,
      "weak": 2699,
      "lier": 2700,
      "absol": 2701,
      "celine": 2702,
      "moving": 2703,
      "show": 2704,
      "shut": 2705,
      "notice": 2706,
      "fest": 2707,
      "suspected": 2708,
      "poc": 2709,
      "peril": 2710,
      "emer": 2711,
      "process": 2712,
      "bris": 2713,
      "disco": 2714,
      "discovered": 2715,
      "uding": 2716,
      "pret": 2717,
      "dreamed": 2718,
      "cords": 2719,
      "clopean": 2720,
      "reading": 2721,
      "carvings": 2722,
      "doors": 2723,
      "moonlight": 2724,
      "Marceline": 2725,
      "cholog": 2726,
      "motions": 2727,
      "hardly": 2728,
      "abysses": 2729,
      "climbed": 2730,
      "antique": 2731,
      "dreaded": 2732,
      "appearance": 2733,
      "English": 2734,
      "grandfather": 2735,
      "blasphemous": 2736,
      "Jermyn": 2737,
      "Pawtu": 2738,
      "fancied": 2739,
      "Go": 2740,
      "Out": 2741,
      "War": 2742,
      "afr": 2743,
      "gust": 2744,
      "ky": 2745,
      "lind": 2746,
      "miles": 2747,
      "nal": 2748,
      "patter": 2749,
      "sac": 2750,
      "song": 2751,
      "wro": 2752,
      "instead": 2753,
      "anim": 2754,
      "stench": 2755,
      "orous": 2756,
      "arily": 2757,
      "sequ": 2758,
      "unmistak": 2759,
      "degre": 2760,
      "definite": 2761,
      "meas": 2762,
      "ountain": 2763,
      "extre": 2764,
      "points": 2765,
      "ateful": 2766,
      "evol": 2767,
      "prodig": 2768,
      "creature": 2769,
      "draw": 2770,
      "azing": 2771,
      "regard": 2772,
      "studies": 2773,
      "trying": 2774,
      "furtive": 2775,
      "spectral": 2776,
      "puzz": 2777,
      "needed": 2778,
      "centuries": 2779,
      "farmhouse": 2780,
      "crossed": 2781,
      "slightly": 2782,
      "commun": 2783,
      "yramid": 2784,
      "impressions": 2785,
      "empty": 2786,
      "encountered": 2787,
      "absolute": 2788,
      "Pawtuxet": 2789,
      "wrote": 2790,
      "Ex": 2791,
      "Leng": 2792,
      "May": 2793,
      "lad": 2794,
      "inqu": 2795,
      "influ": 2796,
      "stup": 2797,
      "altogether": 2798,
      "separ": 2799,
      "icon": 2800,
      "ghast": 2801,
      "accord": 2802,
      "terrif": 2803,
      "iron": 2804,
      "lot": 2805,
      "loath": 2806,
      "ount": 2807,
      "apart": 2808,
      "cting": 2809,
      "const": 2810,
      "thern": 2811,
      "knows": 2812,
      "seems": 2813,
      "tree": 2814,
      "surround": 2815,
      "Armit": 2816,
      "feeling": 2817,
      "children": 2818,
      "physic": 2819,
      "trouble": 2820,
      "feeble": 2821,
      "necessary": 2822,
      "victim": 2823,
      "resolved": 2824,
      "aperture": 2825,
      "streng": 2826,
      "afraid": 2827,
      "extreme": 2828,
      "Armitage": 2829,
      "Dun": 2830,
      "Li": 2831,
      "bare": 2832,
      "cou": 2833,
      "hed": 2834,
      "hinted": 2835,
      "swi": 2836,
      "inexplic": 2837,
      "heart": 2838,
      "lls": 2839,
      "choked": 2840,
      "wered": 2841,
      "demon": 2842,
      "neither": 2843,
      "shr": 2844,
      "mankind": 2845,
      "scattered": 2846,
      "endless": 2847,
      "artic": 2848,
      "glance": 2849,
      "hollow": 2850,
      "inking": 2851,
      "ailing": 2852,
      "eyed": 2853,
      "guide": 2854,
      "apping": 2855,
      "panic": 2856,
      "breath": 2857,
      "cylind": 2858,
      "dropped": 2859,
      "glimpse": 2860,
      "physical": 2861,
      "gleam": 2862,
      "witch": 2863,
      "vault": 2864,
      "bridge": 2865,
      "gulfs": 2866,
      "significance": 2867,
      "cott": 2868,
      "shunned": 2869,
      "horizon": 2870,
      "discovery": 2871,
      "Der": 2872,
      "Ol": 2873,
      "ais": 2874,
      "dare": 2875,
      "ec": 2876,
      "fat": 2877,
      "fun": 2878,
      "fiend": 2879,
      "god": 2880,
      "hence": 2881,
      "paren": 2882,
      "rin": 2883,
      "uous": 2884,
      "thus": 2885,
      "intell": 2886,
      "thed": 2887,
      "ero": 2888,
      "ency": 2889,
      "omen": 2890,
      "noise": 2891,
      "susp": 2892,
      "suff": 2893,
      "iling": 2894,
      "using": 2895,
      "strain": 2896,
      "prove": 2897,
      "worn": 2898,
      "worst": 2899,
      "ciph": 2900,
      "months": 2901,
      "dizz": 2902,
      "slant": 2903,
      "Necr": 2904,
      "missing": 2905,
      "absence": 2906,
      "concerning": 2907,
      "sculptures": 2908,
      "pleasant": 2909,
      "fashion": 2910,
      "thirty": 2911,
      "Ulthar": 2912,
      "conversation": 2913,
      "Derby": 2914,
      "intellig": 2915,
      "00": 2916,
      "Gods": 2917,
      "athing": 2918,
      "big": 2919,
      "data": 2920,
      "eks": 2921,
      "hang": 2922,
      "na": 2923,
      "sane": 2924,
      "ustr": 2925,
      "wings": 2926,
      "inv": 2927,
      "records": 2928,
      "escap": 2929,
      "access": 2930,
      "spring": 2931,
      "whence": 2932,
      "comb": 2933,
      "compl": 2934,
      "commen": 2935,
      "gling": 2936,
      "glow": 2937,
      "author": 2938,
      "subject": 2939,
      "persons": 2940,
      "vivid": 2941,
      "fragment": 2942,
      "shaped": 2943,
      "increas": 2944,
      "increased": 2945,
      "approached": 2946,
      "structure": 2947,
      "lonely": 2948,
      "details": 2949,
      "fabulous": 2950,
      "coffin": 2951,
      "Yet": 2952,
      "ait": 2953,
      "bright": 2954,
      "fung": 2955,
      "hints": 2956,
      "ilo": 2957,
      "jour": 2958,
      "jest": 2959,
      "killed": 2960,
      "pair": 2961,
      "tw": 2962,
      "tro": 2963,
      "yaw": 2964,
      "ertain": 2965,
      "stair": 2966,
      "arms": 2967,
      "chair": 2968,
      "ays": 2969,
      "text": 2970,
      "antarctic": 2971,
      "event": 2972,
      "sphere": 2973,
      "phen": 2974,
      "prison": 2975,
      "Indi": 2976,
      "obviously": 2977,
      "insane": 2978,
      "silver": 2979,
      "ugs": 2980,
      "Wilbur": 2981,
      "doubted": 2982,
      "imagin": 2983,
      "Something": 2984,
      "senses": 2985,
      "slopes": 2986,
      "ological": 2987,
      "occasional": 2988,
      "Perhaps": 2989,
      "teleph": 2990,
      "piping": 2991,
      "agreed": 2992,
      "onomicon": 2993,
      "strength": 2994,
      "Necronomicon": 2995,
      "16": 2996,
      "Mart": 2997,
      "Obed": 2998,
      "Wal": 2999,
      "bold": 3000,
      "cab": 3001,
      "fil": 3002,
      "failed": 3003,
      "rats": 3004,
      "sou": 3005,
      "orted": 3006,
      "island": 3007,
      "acted": 3008,
      "utes": 3009,
      "forward": 3010,
      "pest": 3011,
      "myth": 3012,
      "ational": 3013,
      "atest": 3014,
      "ify": 3015,
      "scen": 3016,
      "worship": 3017,
      "pray": 3018,
      "crude": 3019,
      "obtained": 3020,
      "understand": 3021,
      "anek": 3022,
      "telling": 3023,
      "capt": 3024,
      "eleph": 3025,
      "Mrs": 3026,
      "listen": 3027,
      "listening": 3028,
      "circle": 3029,
      "instinct": 3030,
      "drove": 3031,
      "figures": 3032,
      "shuddered": 3033,
      "music": 3034,
      "million": 3035,
      "character": 3036,
      "otep": 3037,
      "marvell": 3038,
      "Nyar": 3039,
      "prodigious": 3040,
      "Her": 3041,
      "Is": 3042,
      "bent": 3043,
      "cence": 3044,
      "eager": 3045,
      "ffled": 3046,
      "sav": 3047,
      "received": 3048,
      "station": 3049,
      "arn": 3050,
      "ime": 3051,
      "loose": 3052,
      "lock": 3053,
      "apped": 3054,
      "fold": 3055,
      "greatest": 3056,
      "Though": 3057,
      "likewise": 3058,
      "mostly": 3059,
      "descent": 3060,
      "visited": 3061,
      "worlds": 3062,
      "rub": 3063,
      "regions": 3064,
      "finding": 3065,
      "posite": 3066,
      "suggested": 3067,
      "suggestion": 3068,
      "existed": 3069,
      "organic": 3070,
      "produced": 3071,
      "fifty": 3072,
      "lathotep": 3073,
      "brooding": 3074,
      "Earth": 3075,
      "psycholog": 3076,
      "photograph": 3077,
      "Nyarlathotep": 3078,
      "Des": 3079,
      "House": 3080,
      "Our": 3081,
      "Race": 3082,
      "Te": 3083,
      "bow": 3084,
      "cular": 3085,
      "dang": 3086,
      "ratt": 3087,
      "information": 3088,
      "arian": 3089,
      "ading": 3090,
      "bel": 3091,
      "beasts": 3092,
      "chang": 3093,
      "vert": 3094,
      "une": 3095,
      "unnatural": 3096,
      "dest": 3097,
      "detect": 3098,
      "shing": 3099,
      "shout": 3100,
      "fected": 3101,
      "ilar": 3102,
      "contr": 3103,
      "quaint": 3104,
      "resist": 3105,
      "mansion": 3106,
      "exceed": 3107,
      "ills": 3108,
      "cru": 3109,
      "flame": 3110,
      "diary": 3111,
      "ips": 3112,
      "sheer": 3113,
      "arrange": 3114,
      "broke": 3115,
      "slept": 3116,
      "questions": 3117,
      "belief": 3118,
      "squat": 3119,
      "easily": 3120,
      "raised": 3121,
      "ferred": 3122,
      "histor": 3123,
      "thorough": 3124,
      "descended": 3125,
      "Orne": 3126,
      "priests": 3127,
      "columns": 3128,
      "hoped": 3129,
      "chamber": 3130,
      "conceivable": 3131,
      "Just": 3132,
      "Later": 3133,
      "Was": 3134,
      "bank": 3135,
      "fav": 3136,
      "fren": 3137,
      "hes": 3138,
      "io": 3139,
      "law": 3140,
      "mical": 3141,
      "nt": 3142,
      "paint": 3143,
      "soft": 3144,
      "infinitely": 3145,
      "beard": 3146,
      "verse": 3147,
      "liked": 3148,
      "destro": 3149,
      "ols": 3150,
      "tel": 3151,
      "spent": 3152,
      "worse": 3153,
      "earlier": 3154,
      "eping": 3155,
      "prin": 3156,
      "likely": 3157,
      "fling": 3158,
      "preced": 3159,
      "type": 3160,
      "rying": 3161,
      "realm": 3162,
      "realized": 3163,
      "substance": 3164,
      "native": 3165,
      "hideously": 3166,
      "abyrin": 3167,
      "mists": 3168,
      "largely": 3169,
      "disturbing": 3170,
      "respons": 3171,
      "wrong": 3172,
      "North": 3173,
      "swept": 3174,
      "superst": 3175,
      "original": 3176,
      "beginning": 3177,
      "developed": 3178,
      "group": 3179,
      "gradually": 3180,
      "corridor": 3181,
      "mortal": 3182,
      "virt": 3183,
      "answer": 3184,
      "loathsome": 3185,
      "commenced": 3186,
      "Amer": 3187,
      "Egy": 3188,
      "Ge": 3189,
      "Mer": 3190,
      "Roman": 3191,
      "Will": 3192,
      "cing": 3193,
      "gained": 3194,
      "hung": 3195,
      "lack": 3196,
      "labyrin": 3197,
      "vist": 3198,
      "want": 3199,
      "yer": 3200,
      "zen": 3201,
      "instr": 3202,
      "revol": 3203,
      "ordered": 3204,
      "bewild": 3205,
      "univer": 3206,
      "ressed": 3207,
      "explan": 3208,
      "train": 3209,
      "bles": 3210,
      "events": 3211,
      "ums": 3212,
      "ishing": 3213,
      "cles": 3214,
      "clam": 3215,
      "bran": 3216,
      "lightning": 3217,
      "foreign": 3218,
      "disappeared": 3219,
      "flow": 3220,
      "central": 3221,
      "offic": 3222,
      "rested": 3223,
      "earthly": 3224,
      "harbour": 3225,
      "says": 3226,
      "caut": 3227,
      "ships": 3228,
      "amongst": 3229,
      "deeply": 3230,
      "summon": 3231,
      "stories": 3232,
      "explor": 3233,
      "shadowy": 3234,
      "completely": 3235,
      "fields": 3236,
      "nearer": 3237,
      "marvellous": 3238,
      "Americ": 3239,
      "universe": 3240,
      "Certain": 3241,
      "Do": 3242,
      "Every": 3243,
      "South": 3244,
      "Ver": 3245,
      "ciful": 3246,
      "fro": 3247,
      "hither": 3248,
      "iant": 3249,
      "wound": 3250,
      "infin": 3251,
      "oning": 3252,
      "aries": 3253,
      "hearing": 3254,
      "belong": 3255,
      "impossible": 3256,
      "peace": 3257,
      "ribly": 3258,
      "manuscript": 3259,
      "antak": 3260,
      "exped": 3261,
      "uments": 3262,
      "ignor": 3263,
      "cob": 3264,
      "coloss": 3265,
      "gled": 3266,
      "wherein": 3267,
      "desol": 3268,
      "wore": 3269,
      "underground": 3270,
      "repul": 3271,
      "chemical": 3272,
      "rocks": 3273,
      "ference": 3274,
      "barri": 3275,
      "climb": 3276,
      "excit": 3277,
      "describe": 3278,
      "smoke": 3279,
      "meaning": 3280,
      "messeng": 3281,
      "named": 3282,
      "Shantak": 3283,
      "reflected": 3284,
      "companion": 3285,
      "cliffs": 3286,
      "determined": 3287,
      "uncanny": 3288,
      "pocket": 3289,
      "ghastly": 3290,
      "according": 3291,
      "phenomen": 3292,
      "frenz": 3293,
      "Again": 3294,
      "Kur": 3295,
      "Malone": 3296,
      "Zo": 3297,
      "cous": 3298,
      "fine": 3299,
      "gather": 3300,
      "ience": 3301,
      "oo": 3302,
      "pause": 3303,
      "rare": 3304,
      "school": 3305,
      "tight": 3306,
      "vil": 3307,
      "reck": 3308,
      "eden": 3309,
      "ener": 3310,
      "aten": 3311,
      "army": 3312,
      "ingu": 3313,
      "ases": 3314,
      "tot": 3315,
      "section": 3316,
      "whir": 3317,
      "nois": 3318,
      "unusual": 3319,
      "forget": 3320,
      "deed": 3321,
      "lod": 3322,
      "noted": 3323,
      "outlines": 3324,
      "conject": 3325,
      "result": 3326,
      "bygone": 3327,
      "couldn": 3328,
      "evidence": 3329,
      "clust": 3330,
      "prov": 3331,
      "worked": 3332,
      "Its": 3333,
      "greatly": 3334,
      "ached": 3335,
      "tribut": 3336,
      "atched": 3337,
      "series": 3338,
      "reluct": 3339,
      "Weeden": 3340,
      "ibility": 3341,
      "helped": 3342,
      "limit": 3343,
      "similar": 3344,
      "tradition": 3345,
      "shelves": 3346,
      "Prof": 3347,
      "splend": 3348,
      "tracks": 3349,
      "Kingsport": 3350,
      "angles": 3351,
      "abandoned": 3352,
      "twisted": 3353,
      "cipher": 3354,
      "hesit": 3355,
      "Aug": 3356,
      "Eli": 3357,
      "Hall": 3358,
      "Ju": 3359,
      "Tr": 3360,
      "fail": 3361,
      "hon": 3362,
      "lat": 3363,
      "rout": 3364,
      "vital": 3365,
      "ydam": 3366,
      "ads": 3367,
      "oms": 3368,
      "images": 3369,
      "entities": 3370,
      "dem": 3371,
      "deeper": 3372,
      "debris": 3373,
      "shif": 3374,
      "shining": 3375,
      "mani": 3376,
      "managed": 3377,
      "plun": 3378,
      "traver": 3379,
      "akes": 3380,
      "phant": 3381,
      "glac": 3382,
      "hole": 3383,
      "treat": 3384,
      "els": 3385,
      "izens": 3386,
      "centre": 3387,
      "doorway": 3388,
      "steal": 3389,
      "temples": 3390,
      "spoken": 3391,
      "captain": 3392,
      "whispers": 3393,
      "plainly": 3394,
      "falling": 3395,
      "wax": 3396,
      "magn": 3397,
      "altar": 3398,
      "command": 3399,
      "frequently": 3400,
      "Suydam": 3401,
      "About": 3402,
      "dimensions": 3403,
      "piece": 3404,
      "preserved": 3405,
      "smell": 3406,
      "vacant": 3407,
      "Cyclopean": 3408,
      "Salem": 3409,
      "inexplicable": 3410,
      "Olney": 3411,
      "scenes": 3412,
      "August": 3413,
      "Cth": 3414,
      "Lat": 3415,
      "Ro": 3416,
      "awe": 3417,
      "cit": 3418,
      "dut": 3419,
      "dry": 3420,
      "ez": 3421,
      "flying": 3422,
      "mound": 3423,
      "mud": 3424,
      "rail": 3425,
      "rows": 3426,
      "sch": 3427,
      "taver": 3428,
      "wn": 3429,
      "thre": 3430,
      "inx": 3431,
      "ince": 3432,
      "intr": 3433,
      "rear": 3434,
      "research": 3435,
      "enor": 3436,
      "stay": 3437,
      "aroused": 3438,
      "asy": 3439,
      "itary": 3440,
      "wire": 3441,
      "lips": 3442,
      "loomed": 3443,
      "shiver": 3444,
      "ulhu": 3445,
      "awake": 3446,
      "trail": 3447,
      "grim": 3448,
      "throng": 3449,
      "corpse": 3450,
      "seeing": 3451,
      "headed": 3452,
      "atches": 3453,
      "merciful": 3454,
      "greenish": 3455,
      "screaming": 3456,
      "consist": 3457,
      "joined": 3458,
      "extent": 3459,
      "explained": 3460,
      "including": 3461,
      "reveal": 3462,
      "burned": 3463,
      "apparent": 3464,
      "company": 3465,
      "Such": 3466,
      "primitive": 3467,
      "possessed": 3468,
      "sailors": 3469,
      "considerable": 3470,
      "swift": 3471,
      "Egypt": 3472,
      "manifest": 3473,
      "Cthulhu": 3474,
      "Ngr": 3475,
      "Sm": 3476,
      "dul": 3477,
      "een": 3478,
      "fain": 3479,
      "lately": 3480,
      "ners": 3481,
      "olet": 3482,
      "pall": 3483,
      "pend": 3484,
      "rim": 3485,
      "rance": 3486,
      "send": 3487,
      "tong": 3488,
      "vig": 3489,
      "rele": 3490,
      "ofty": 3491,
      "stark": 3492,
      "stumbled": 3493,
      "orge": 3494,
      "cher": 3495,
      "weeks": 3496,
      "wixt": 3497,
      "abl": 3498,
      "exha": 3499,
      "somewhere": 3500,
      "gray": 3501,
      "coast": 3502,
      "current": 3503,
      "mono": 3504,
      "urnal": 3505,
      "Inqu": 3506,
      "prec": 3507,
      "ensive": 3508,
      "dreaming": 3509,
      "thinking": 3510,
      "shook": 3511,
      "conditions": 3512,
      "decay": 3513,
      "calcul": 3514,
      "ogs": 3515,
      "drive": 3516,
      "personal": 3517,
      "violet": 3518,
      "suggestions": 3519,
      "ghoulish": 3520,
      "powers": 3521,
      "screamed": 3522,
      "bulk": 3523,
      "painted": 3524,
      "deliri": 3525,
      "explore": 3526,
      "exactly": 3527,
      "designs": 3528,
      "immediate": 3529,
      "quarters": 3530,
      "birds": 3531,
      "script": 3532,
      "vegetation": 3533,
      "observed": 3534,
      "Elwood": 3535,
      "ilosoph": 3536,
      "Ngranek": 3537,
      "exhaust": 3538,
      "15": 3539,
      "Ben": 3540,
      "Harr": 3541,
      "Uni": 3542,
      "ben": 3543,
      "dull": 3544,
      "fixed": 3545,
      "haz": 3546,
      "ili": 3547,
      "ope": 3548,
      "phe": 3549,
      "rud": 3550,
      "sad": 3551,
      "sway": 3552,
      "swar": 3553,
      "tend": 3554,
      "uation": 3555,
      "thur": 3556,
      "anes": 3557,
      "anok": 3558,
      "rect": 3559,
      "asm": 3560,
      "issu": 3561,
      "sealed": 3562,
      "acle": 3563,
      "iments": 3564,
      "ented": 3565,
      "vey": 3566,
      "chants": 3567,
      "urally": 3568,
      "utch": 3569,
      "abrup": 3570,
      "rope": 3571,
      "cere": 3572,
      "--\"": 3573,
      "essor": 3574,
      "shone": 3575,
      "percept": 3576,
      "traces": 3577,
      "usions": 3578,
      "upward": 3579,
      "gras": 3580,
      "avoid": 3581,
      "progress": 3582,
      "board": 3583,
      "discover": 3584,
      "craz": 3585,
      "curse": 3586,
      "answered": 3587,
      "attering": 3588,
      "dragged": 3589,
      "floated": 3590,
      "realised": 3591,
      "Arab": 3592,
      "colon": 3593,
      "minute": 3594,
      "ritual": 3595,
      "behold": 3596,
      "interval": 3597,
      "calm": 3598,
      "element": 3599,
      "wooden": 3600,
      "aeons": 3601,
      "waited": 3602,
      "identity": 3603,
      "friends": 3604,
      "surely": 3605,
      "sensation": 3606,
      "marks": 3607,
      "removed": 3608,
      "middle": 3609,
      "ranon": 3610,
      "truly": 3611,
      "Joe": 3612,
      "remains": 3613,
      "crawling": 3614,
      "directly": 3615,
      "slip": 3616,
      "supply": 3617,
      "physician": 3618,
      "Dunwich": 3619,
      "exceedingly": 3620,
      "colossal": 3621,
      "Professor": 3622,
      "schol": 3623,
      "Inquanok": 3624,
      "?\"": 3625,
      "Ac": 3626,
      "Apri": 3627,
      "Pres": 3628,
      "Rom": 3629,
      "Rob": 3630,
      "bat": 3631,
      "catch": 3632,
      "fing": 3633,
      "fied": 3634,
      "iam": 3635,
      "master": 3636,
      "pinn": 3637,
      "ti": 3638,
      "taste": 3639,
      "uced": 3640,
      "ator": 3641,
      "ands": 3642,
      "advent": 3643,
      "noct": 3644,
      "noises": 3645,
      "unlike": 3646,
      "abod": 3647,
      "pet": 3648,
      "ulty": 3649,
      "keen": 3650,
      "apprehens": 3651,
      "aston": 3652,
      "awed": 3653,
      "upstairs": 3654,
      "blance": 3655,
      "footh": 3656,
      "artific": 3657,
      "lessness": 3658,
      "spell": 3659,
      "monster": 3660,
      "monstro": 3661,
      "horse": 3662,
      "previous": 3663,
      "clothing": 3664,
      "distingu": 3665,
      "igned": 3666,
      "turning": 3667,
      "clean": 3668,
      "ials": 3669,
      "Arthur": 3670,
      "relation": 3671,
      "planes": 3672,
      "store": 3673,
      "iah": 3674,
      "watching": 3675,
      "walking": 3676,
      "careful": 3677,
      "falls": 3678,
      "leader": 3679,
      "imagine": 3680,
      "vari": 3681,
      "disturb": 3682,
      "mysterious": 3683,
      "depth": 3684,
      "elsewhere": 3685,
      "Before": 3686,
      "advanced": 3687,
      "specimen": 3688,
      "luminous": 3689,
      "develop": 3690,
      "patient": 3691,
      "antiquity": 3692,
      "crowd": 3693,
      "wharves": 3694,
      "settled": 3695,
      "fairly": 3696,
      "Kuranes": 3697,
      "University": 3698,
      "scholar": 3699,
      "April": 3700,
      "monstros": 3701,
      "',": 3702,
      "Atal": 3703,
      "Con": 3704,
      "Har": 3705,
      "Par": 3706,
      "Tilling": 3707,
      "aur": 3708,
      "ares": 3709,
      "due": 3710,
      "dazed": 3711,
      "mutter": 3712,
      "nause": 3713,
      "oper": 3714,
      "stick": 3715,
      "assem": 3716,
      "itch": 3717,
      "lect": 3718,
      "nod": 3719,
      "noxious": 3720,
      "acy": 3721,
      "iding": 3722,
      "abhor": 3723,
      "motor": 3724,
      "suf": 3725,
      "contain": 3726,
      "concept": 3727,
      "pless": 3728,
      "awesome": 3729,
      "trap": 3730,
      "usk": 3731,
      "umes": 3732,
      "ighe": 3733,
      "artist": 3734,
      "cosmo": 3735,
      "mont": 3736,
      "horribly": 3737,
      "forming": 3738,
      "angible": 3739,
      "muffled": 3740,
      "arched": 3741,
      "flood": 3742,
      "harm": 3743,
      "passing": 3744,
      "ruined": 3745,
      "betwixt": 3746,
      "rites": 3747,
      "contro": 3748,
      "moments": 3749,
      "queerly": 3750,
      "warning": 3751,
      "gathered": 3752,
      "suppose": 3753,
      "giving": 3754,
      "interested": 3755,
      "description": 3756,
      "delicate": 3757,
      "burning": 3758,
      "deliber": 3759,
      "reports": 3760,
      "knock": 3761,
      "corridors": 3762,
      "sanity": 3763,
      "crowned": 3764,
      "eternal": 3765,
      "degree": 3766,
      "regarding": 3767,
      "instruments": 3768,
      "noisome": 3769,
      "Tillinghast": 3770,
      "Cr": 3771,
      "Celeph": 3772,
      "Ger": 3773,
      "Iranon": 3774,
      "Many": 3775,
      "March": 3776,
      "More": 3777,
      "Nature": 3778,
      "ON": 3779,
      "Sab": 3780,
      "date": 3781,
      "fath": 3782,
      "lap": 3783,
      "loud": 3784,
      "lofty": 3785,
      "mult": 3786,
      "ots": 3787,
      "pical": 3788,
      "pier": 3789,
      "sal": 3790,
      "llen": 3791,
      "wiz": 3792,
      "unconscious": 3793,
      "liv": 3794,
      "meter": 3795,
      "rist": 3796,
      "myths": 3797,
      "respect": 3798,
      "results": 3799,
      "potent": 3800,
      "permit": 3801,
      "gret": 3802,
      "spin": 3803,
      "spaces": 3804,
      "does": 3805,
      "whenever": 3806,
      "opposite": 3807,
      "comes": 3808,
      "discer": 3809,
      "disgust": 3810,
      "downward": 3811,
      "menace": 3812,
      "winds": 3813,
      "daylight": 3814,
      "finished": 3815,
      "guarded": 3816,
      "trium": 3817,
      "nerves": 3818,
      "marine": 3819,
      "crib": 3820,
      "solution": 3821,
      "boring": 3822,
      "basalt": 3823,
      "generally": 3824,
      "driven": 3825,
      "sleeping": 3826,
      "climbing": 3827,
      "touched": 3828,
      "flashlight": 3829,
      "rumours": 3830,
      "recognised": 3831,
      "fortun": 3832,
      "freely": 3833,
      "travel": 3834,
      "westward": 3835,
      "176": 3836,
      "stronger": 3837,
      "equally": 3838,
      "Abdul": 3839,
      "waiting": 3840,
      "importance": 3841,
      "pillars": 3842,
      "laughed": 3843,
      "baffling": 3844,
      "tunnel": 3845,
      "John": 3846,
      "rotting": 3847,
      "winged": 3848,
      "communic": 3849,
      "cottage": 3850,
      "William": 3851,
      "barrier": 3852,
      "July": 3853,
      "enormous": 3854,
      "Smith": 3855,
      "Harris": 3856,
      "nocturnal": 3857,
      "Celephais": 3858,
      "Gate": 3859,
      "Oc": 3860,
      "aight": 3861,
      "domin": 3862,
      "fal": 3863,
      "fight": 3864,
      "fate": 3865,
      "gri": 3866,
      "gently": 3867,
      "hom": 3868,
      "mies": 3869,
      "nes": 3870,
      "nigh": 3871,
      "pure": 3872,
      "rav": 3873,
      "rical": 3874,
      "yle": 3875,
      "yards": 3876,
      "infinite": 3877,
      "thes": 3878,
      "regret": 3879,
      "stag": 3880,
      "stances": 3881,
      "aside": 3882,
      "advis": 3883,
      "seat": 3884,
      "seld": 3885,
      "beast": 3886,
      "ache": 3887,
      "enter": 3888,
      "entrance": 3889,
      "chill": 3890,
      "detest": 3891,
      "definitely": 3892,
      "agues": 3893,
      "ulate": 3894,
      "sole": 3895,
      "foet": 3896,
      "grace": 3897,
      "ends": 3898,
      "cool": 3899,
      "knowing": 3900,
      "brown": 3901,
      "boat": 3902,
      "itect": 3903,
      "flat": 3904,
      "madden": 3905,
      "die": 3906,
      "rench": 3907,
      "fined": 3908,
      "pedest": 3909,
      "minded": 3910,
      "tempor": 3911,
      "skill": 3912,
      "silently": 3913,
      "related": 3914,
      "cries": 3915,
      "mounted": 3916,
      "report": 3917,
      "members": 3918,
      "heaven": 3919,
      "cheap": 3920,
      "priv": 3921,
      "sensitive": 3922,
      "quired": 3923,
      "folklore": 3924,
      "peculiarly": 3925,
      "mysteries": 3926,
      "cryptic": 3927,
      "lurking": 3928,
      "throat": 3929,
      "experiment": 3930,
      "stuff": 3931,
      "immediately": 3932,
      "occasionally": 3933,
      "inquir": 3934,
      "escaped": 3935,
      "staircase": 3936,
      "savage": 3937,
      "infinity": 3938,
      "cosmos": 3939,
      "seldom": 3940,
      "Bir": 3941,
      "During": 3942,
      "Kal": 3943,
      "bi": 3944,
      "bbed": 3945,
      "bung": 3946,
      "daughter": 3947,
      "dusk": 3948,
      "gates": 3949,
      "ially": 3950,
      "kill": 3951,
      "lined": 3952,
      "mat": 3953,
      "nine": 3954,
      "pi": 3955,
      "picked": 3956,
      "rous": 3957,
      "rich": 3958,
      "raid": 3959,
      "wave": 3960,
      "wanted": 3961,
      "yl": 3962,
      "thetic": 3963,
      "anwhile": 3964,
      "ators": 3965,
      "ork": 3966,
      "alog": 3967,
      "acc": 3968,
      "acid": 3969,
      "accept": 3970,
      "accompl": 3971,
      "amount": 3972,
      "unwholesome": 3973,
      "ability": 3974,
      "cease": 3975,
      "irregular": 3976,
      "kets": 3977,
      "oney": 3978,
      "poet": 3979,
      "perceived": 3980,
      "emp": 3981,
      "straight": 3982,
      "gran": 3983,
      "affected": 3984,
      "comfor": 3985,
      "goss": 3986,
      "establ": 3987,
      "ivory": 3988,
      "creaking": 3989,
      "previously": 3990,
      "obvious": 3991,
      "Why": 3992,
      "rys": 3993,
      "bub": 3994,
      "court": 3995,
      "enetr": 3996,
      "fearsome": 3997,
      "natives": 3998,
      "slab": 3999,
      "ruin": 4000,
      "possibly": 4001,
      "ashing": 4002,
      "saying": 4003,
      "bury": 4004,
      "incident": 4005,
      "Green": 4006,
      "Sometimes": 4007,
      "pushed": 4008,
      "drif": 4009,
      "faintly": 4010,
      "drop": 4011,
      "autum": 4012,
      "midst": 4013,
      "complex": 4014,
      "ominous": 4015,
      "tremendous": 4016,
      "recognized": 4017,
      "Norrys": 4018,
      "strangeness": 4019,
      "travell": 4020,
      "violently": 4021,
      "crawled": 4022,
      "neighbour": 4023,
      "fashioned": 4024,
      "reported": 4025,
      "leaped": 4026,
      "nearest": 4027,
      "circumstance": 4028,
      "Meanwhile": 4029,
      "precipit": 4030,
      "feverish": 4031,
      "chimney": 4032,
      "collap": 4033,
      "proportion": 4034,
      "beams": 4035,
      "fascin": 4036,
      "parents": 4037,
      "expedition": 4038,
      "Zoogs": 4039,
      "bungal": 4040,
      "\"'": 4041,
      ",'": 4042,
      "Afr": 4043,
      "Fen": 4044,
      "Mus": 4045,
      "Nig": 4046,
      "York": 4047,
      "ba": 4048,
      "dance": 4049,
      "dying": 4050,
      "gaze": 4051,
      "hol": 4052,
      "jun": 4053,
      "ograph": 4054,
      "rant": 4055,
      "sof": 4056,
      "sailed": 4057,
      "anxious": 4058,
      "rever": 4059,
      "rers": 4060,
      "attribut": 4061,
      "stif": 4062,
      "nobody": 4063,
      "imm": 4064,
      "immemor": 4065,
      "unk": 4066,
      "delight": 4067,
      "shown": 4068,
      "aped": 4069,
      "aping": 4070,
      "contained": 4071,
      "quis": 4072,
      "exter": 4073,
      "philosoph": 4074,
      "speed": 4075,
      "goth": 4076,
      "fles": 4077,
      "flam": 4078,
      "month": 4079,
      "ension": 4080,
      "icking": 4081,
      "dreamer": 4082,
      "eling": 4083,
      "calling": 4084,
      "architect": 4085,
      "realms": 4086,
      "hillside": 4087,
      "slaves": 4088,
      "merchants": 4089,
      "reaching": 4090,
      "appar": 4091,
      "boro": 4092,
      "ridge": 4093,
      "struction": 4094,
      "learn": 4095,
      "repell": 4096,
      "numerous": 4097,
      "astern": 4098,
      "usually": 4099,
      "flashed": 4100,
      "quietly": 4101,
      "portr": 4102,
      "frantically": 4103,
      "shapeless": 4104,
      "cryptical": 4105,
      "concerned": 4106,
      "countryside": 4107,
      "badly": 4108,
      "Brattle": 4109,
      "descend": 4110,
      "shrieked": 4111,
      "angled": 4112,
      "machine": 4113,
      "birth": 4114,
      "mystic": 4115,
      "formulae": 4116,
      "phosphorescent": 4117,
      "represented": 4118,
      "tiny": 4119,
      "claimed": 4120,
      "sacrif": 4121,
      "fiendish": 4122,
      "suspic": 4123,
      "suffic": 4124,
      "telephone": 4125,
      "princi": 4126,
      "hitherto": 4127,
      "messenger": 4128,
      "route": 4129,
      "Birch": 4130,
      "bungalow": 4131,
      "Brattleboro": 4132,
      "Col": 4133,
      "Eur": 4134,
      "French": 4135,
      "Gu": 4136,
      "Gugs": 4137,
      "Pri": 4138,
      "Sph": 4139,
      "Sud": 4140,
      "Ter": 4141,
      "Whe": 4142,
      "cred": 4143,
      "fan": 4144,
      "git": 4145,
      "hat": 4146,
      "hateful": 4147,
      "jagged": 4148,
      "lake": 4149,
      "mix": 4150,
      "nu": 4151,
      "paid": 4152,
      "pyramid": 4153,
      "ume": 4154,
      "winter": 4155,
      "yield": 4156,
      "intense": 4157,
      "anthro": 4158,
      "rer": 4159,
      "staring": 4160,
      "orph": 4161,
      "item": 4162,
      "iss": 4163,
      "sevent": 4164,
      "omal": 4165,
      "chain": 4166,
      "amb": 4167,
      "forty": 4168,
      "decor": 4169,
      "peas": 4170,
      "shop": 4171,
      "rig": 4172,
      "pop": 4173,
      "poison": 4174,
      "trick": 4175,
      "usive": 4176,
      "ette": 4177,
      "ifice": 4178,
      "eved": 4179,
      "spap": 4180,
      "doing": 4181,
      "ivered": 4182,
      "cohere": 4183,
      "proof": 4184,
      "forever": 4185,
      "disquiet": 4186,
      "glit": 4187,
      "anyone": 4188,
      "ancestr": 4189,
      "nights": 4190,
      "dial": 4191,
      "uel": 4192,
      "dreamland": 4193,
      "seeking": 4194,
      "denly": 4195,
      "voy": 4196,
      "drag": 4197,
      "effort": 4198,
      "jected": 4199,
      "subtly": 4200,
      "subsequ": 4201,
      "...\"": 4202,
      "attack": 4203,
      "wildly": 4204,
      "questioned": 4205,
      "paral": 4206,
      "fury": 4207,
      "aeon": 4208,
      "collection": 4209,
      "connection": 4210,
      "described": 4211,
      "inclined": 4212,
      "write": 4213,
      "ology": 4214,
      "witness": 4215,
      "running": 4216,
      "beautiful": 4217,
      "shortly": 4218,
      "situation": 4219,
      "pieces": 4220,
      "animals": 4221,
      "groups": 4222,
      "pengu": 4223,
      "important": 4224,
      "echoes": 4225,
      "revelation": 4226,
      "clutched": 4227,
      "mechanical": 4228,
      "influence": 4229,
      "doubtedly": 4230,
      "Island": 4231,
      "vistas": 4232,
      "monoli": 4233,
      "abruptly": 4234,
      "artificial": 4235,
      "granite": 4236,
      "Sphinx": 4237,
      "Suddenly": 4238,
      "30": 4239,
      "AT": 4240,
      "Dy": 4241,
      "High": 4242,
      "Jan": 4243,
      "Never": 4244,
      "Pabod": 4245,
      "Sarn": 4246,
      "bits": 4247,
      "bird": 4248,
      "fly": 4249,
      "ium": 4250,
      "jor": 4251,
      "lou": 4252,
      "mile": 4253,
      "paws": 4254,
      "penetr": 4255,
      "ron": 4256,
      "rat": 4257,
      "tones": 4258,
      "vas": 4259,
      "wond": 4260,
      "erable": 4261,
      "enced": 4262,
      "atmo": 4263,
      "atus": 4264,
      "stors": 4265,
      "orn": 4266,
      "toad": 4267,
      "iture": 4268,
      "whip": 4269,
      "ghost": 4270,
      "acious": 4271,
      "chise": 4272,
      "absur": 4273,
      "forces": 4274,
      "def": 4275,
      "deem": 4276,
      "moss": 4277,
      "nels": 4278,
      "kest": 4279,
      "supre": 4280,
      "manship": 4281,
      "pot": 4282,
      "food": 4283,
      "spires": 4284,
      "oking": 4285,
      "cler": 4286,
      "afar": 4287,
      "displayed": 4288,
      "crag": 4289,
      "ancestors": 4290,
      "newspap": 4291,
      "Indeed": 4292,
      "crew": 4293,
      "talking": 4294,
      "bert": 4295,
      "bering": 4296,
      "ansen": 4297,
      "coloured": 4298,
      "subtle": 4299,
      "slim": 4300,
      "skull": 4301,
      "engulf": 4302,
      "interior": 4303,
      "stock": 4304,
      "cured": 4305,
      "borne": 4306,
      "breathing": 4307,
      "dimly": 4308,
      "flee": 4309,
      "crystal": 4310,
      "organs": 4311,
      "roads": 4312,
      "swamp": 4313,
      "smooth": 4314,
      "included": 4315,
      "accounts": 4316,
      "guessed": 4317,
      "crossing": 4318,
      "succeeded": 4319,
      "bridges": 4320,
      "cloudy": 4321,
      "column": 4322,
      "titanic": 4323,
      "characters": 4324,
      "hurt": 4325,
      "customed": 4326,
      "faith": 4327,
      "vainly": 4328,
      "resemblance": 4329,
      "assured": 4330,
      "People": 4331,
      "phosphorescence": 4332,
      "Warren": 4333,
      "absolutely": 4334,
      "stupendous": 4335,
      "increasing": 4336,
      "Martense": 4337,
      "changes": 4338,
      "historic": 4339,
      "Vermont": 4340,
      "ceremon": 4341,
      "intervals": 4342,
      "Robert": 4343,
      "foothills": 4344,
      "comfortable": 4345,
      "repellent": 4346,
      "Pabodie": 4347,
      "Sarnath": 4348,
      "absurd": 4349,
      "Com": 4350,
      "Fe": 4351,
      "Fir": 4352,
      "Land": 4353,
      "Mc": 4354,
      "Mountain": 4355,
      "Ph": 4356,
      "Slater": 4357,
      "Town": 4358,
      "eh": 4359,
      "fare": 4360,
      "iently": 4361,
      "jum": 4362,
      "lain": 4363,
      "oak": 4364,
      "pane": 4365,
      "rays": 4366,
      "sank": 4367,
      "task": 4368,
      "uary": 4369,
      "yes": 4370,
      "thou": 4371,
      "inch": 4372,
      "inally": 4373,
      "inconceivable": 4374,
      "theory": 4375,
      "anomal": 4376,
      "stout": 4377,
      "aloud": 4378,
      "ascent": 4379,
      "heres": 4380,
      "iter": 4381,
      "lets": 4382,
      "accustomed": 4383,
      "immen": 4384,
      "amped": 4385,
      "weather": 4386,
      "unless": 4387,
      "decre": 4388,
      "loved": 4389,
      "essed": 4390,
      "meth": 4391,
      "shivered": 4392,
      "outline": 4393,
      "suitable": 4394,
      "illusion": 4395,
      "perman": 4396,
      "trust": 4397,
      "uses": 4398,
      "strick": 4399,
      "strained": 4400,
      "grasp": 4401,
      "spital": 4402,
      "arts": 4403,
      "avag": 4404,
      "project": 4405,
      "overhead": 4406,
      "flung": 4407,
      "clothes": 4408,
      "igny": 4409,
      "dense": 4410,
      "landsc": 4411,
      "reef": 4412,
      "serious": 4413,
      "passages": 4414,
      "occup": 4415,
      "medical": 4416,
      "genu": 4417,
      "Marigny": 4418,
      "capable": 4419,
      "heavily": 4420,
      "chest": 4421,
      "portent": 4422,
      "hyster": 4423,
      "alike": 4424,
      "glimpses": 4425,
      "mathem": 4426,
      "facts": 4427,
      "scram": 4428,
      "catac": 4429,
      "satis": 4430,
      "thousands": 4431,
      "explo": 4432,
      "lurked": 4433,
      "growth": 4434,
      "extravag": 4435,
      "shrieking": 4436,
      "furniture": 4437,
      "remarkable": 4438,
      "lovely": 4439,
      "symbols": 4440,
      "admitted": 4441,
      "desperate": 4442,
      "difficult": 4443,
      "difficulty": 4444,
      "constantly": 4445,
      "slanting": 4446,
      "virtually": 4447,
      "Certainly": 4448,
      "excitement": 4449,
      "duty": 4450,
      "crazy": 4451,
      "German": 4452,
      "private": 4453,
      "autumn": 4454,
      "Afric": 4455,
      "Musides": 4456,
      "immemorial": 4457,
      "immense": 4458,
      "10": 4459,
      "Bo": 4460,
      "East": 4461,
      "Finally": 4462,
      "Lond": 4463,
      "Tem": 4464,
      "Wor": 4465,
      "Yog": 4466,
      "fires": 4467,
      "gs": 4468,
      "kne": 4469,
      "mally": 4470,
      "mask": 4471,
      "sard": 4472,
      "zai": 4473,
      "inhabit": 4474,
      "resu": 4475,
      "onse": 4476,
      "offered": 4477,
      "stared": 4478,
      "inging": 4479,
      "escrib": 4480,
      "itation": 4481,
      "ado": 4482,
      "ades": 4483,
      "seam": 4484,
      "icated": 4485,
      "bell": 4486,
      "lik": 4487,
      "liqu": 4488,
      "uted": 4489,
      "agers": 4490,
      "nest": 4491,
      "shaken": 4492,
      "shaft": 4493,
      "notion": 4494,
      "ounced": 4495,
      "myri": 4496,
      "ody": 4497,
      "quar": 4498,
      "reser": 4499,
      "indescrib": 4500,
      "gru": 4501,
      "gram": 4502,
      "spheres": 4503,
      "doom": 4504,
      "clum": 4505,
      "proble": 4506,
      "disap": 4507,
      "print": 4508,
      "thrown": 4509,
      "speaking": 4510,
      "presently": 4511,
      "Instead": 4512,
      "crest": 4513,
      "prevent": 4514,
      "holy": 4515,
      "center": 4516,
      "guest": 4517,
      "guided": 4518,
      "intens": 4519,
      "imply": 4520,
      "occult": 4521,
      "relative": 4522,
      "Well": 4523,
      "osen": 4524,
      "sights": 4525,
      "reply": 4526,
      "species": 4527,
      "warm": 4528,
      "windowless": 4529,
      "imagined": 4530,
      "hyp": 4531,
      "charge": 4532,
      "doubtless": 4533,
      "response": 4534,
      "repeat": 4535,
      "returning": 4536,
      "trembled": 4537,
      "meanwhile": 4538,
      "absor": 4539,
      "massive": 4540,
      "powerful": 4541,
      "fifteen": 4542,
      "survived": 4543,
      "sorts": 4544,
      "extra": 4545,
      "wrig": 4546,
      "rapidly": 4547,
      "Johansen": 4548,
      "health": 4549,
      "healthy": 4550,
      "refused": 4551,
      "decadent": 4552,
      "hieroglyphs": 4553,
      "emerged": 4554,
      "songs": 4555,
      "unmistakably": 4556,
      "journey": 4557,
      "tongue": 4558,
      "triumph": 4559,
      "Dylath": 4560,
      "supreme": 4561,
      "First": 4562,
      "stricken": 4563,
      "London": 4564,
      "!'": 4565,
      "12": 4566,
      "Don": 4567,
      "ER": 4568,
      "Hathe": 4569,
      "Hutch": 4570,
      "Nar": 4571,
      "Soth": 4572,
      "battle": 4573,
      "eth": 4574,
      "hou": 4575,
      "hus": 4576,
      "ien": 4577,
      "lon": 4578,
      "lav": 4579,
      "laws": 4580,
      "mber": 4581,
      "nin": 4582,
      "pile": 4583,
      "ske": 4584,
      "swell": 4585,
      "ta": 4586,
      "wed": 4587,
      "wid": 4588,
      "ederal": 4589,
      "envelo": 4590,
      "attr": 4591,
      "atives": 4592,
      "sters": 4593,
      "stained": 4594,
      "alarm": 4595,
      "today": 4596,
      "total": 4597,
      "icted": 4598,
      "beck": 4599,
      "accent": 4600,
      "acute": 4601,
      "chor": 4602,
      "unbeliev": 4603,
      "unexpected": 4604,
      "undoubtedly": 4605,
      "unholy": 4606,
      "abroad": 4607,
      "abaout": 4608,
      "ceiling": 4609,
      "loc": 4610,
      "negle": 4611,
      "showing": 4612,
      "rial": 4613,
      "qual": 4614,
      "plans": 4615,
      "excell": 4616,
      "olden": 4617,
      "science": 4618,
      "ishment": 4619,
      "cost": 4620,
      "proceeded": 4621,
      "phr": 4622,
      "otherwise": 4623,
      "crack": 4624,
      "seemingly": 4625,
      "nighted": 4626,
      "newly": 4627,
      "crept": 4628,
      "distorted": 4629,
      "centric": 4630,
      "typical": 4631,
      "backward": 4632,
      "stee": 4633,
      "stell": 4634,
      "Arch": 4635,
      "sounded": 4636,
      "subterr": 4637,
      "naturally": 4638,
      "attend": 4639,
      "slum": 4640,
      "ashed": 4641,
      "silhou": 4642,
      "groves": 4643,
      "appall": 4644,
      "larger": 4645,
      "wilder": 4646,
      "summit": 4647,
      "positive": 4648,
      "volume": 4649,
      "circular": 4650,
      "gai": 4651,
      "besides": 4652,
      "ease": 4653,
      "pitch": 4654,
      "despair": 4655,
      "screams": 4656,
      "boyhood": 4657,
      "footprints": 4658,
      "peaked": 4659,
      "happen": 4660,
      "servant": 4661,
      "shriek": 4662,
      "familiarity": 4663,
      "major": 4664,
      "continuous": 4665,
      "wrought": 4666,
      "shewn": 4667,
      "approaching": 4668,
      "grandmother": 4669,
      "remaining": 4670,
      "troubled": 4671,
      "lanes": 4672,
      "lantern": 4673,
      "directions": 4674,
      "bringing": 4675,
      "Leen": 4676,
      "significant": 4677,
      "terraces": 4678,
      "1928": 4679,
      "Barzai": 4680,
      "circumstances": 4681,
      "domes": 4682,
      "mocking": 4683,
      "unmistakable": 4684,
      "separate": 4685,
      "cabin": 4686,
      "rattling": 4687,
      "plunged": 4688,
      "discern": 4689,
      "accident": 4690,
      "Hatheg": 4691,
      "Hutchins": 4692,
      "subterrane": 4693,
      "Air": 4694,
      "Cour": 4695,
      "Federal": 4696,
      "IV": 4697,
      "June": 4698,
      "Look": 4699,
      "Still": 4700,
      "aer": 4701,
      "dart": 4702,
      "eaten": 4703,
      "faded": 4704,
      "fountain": 4705,
      "gli": 4706,
      "gazed": 4707,
      "gorge": 4708,
      "iable": 4709,
      "pave": 4710,
      "poured": 4711,
      "rul": 4712,
      "rate": 4713,
      "sive": 4714,
      "tough": 4715,
      "tort": 4716,
      "xim": 4717,
      "threw": 4718,
      "analy": 4719,
      "rept": 4720,
      "reared": 4721,
      "request": 4722,
      "stayed": 4723,
      "tober": 4724,
      "heed": 4725,
      "itting": 4726,
      "whist": 4727,
      "entering": 4728,
      "idious": 4729,
      "idual": 4730,
      "weed": 4731,
      "ford": 4732,
      "fru": 4733,
      "frame": 4734,
      "essent": 4735,
      "nether": 4736,
      "neck": 4737,
      "shared": 4738,
      "playing": 4739,
      "awaked": 4740,
      "express": 4741,
      "exotic": 4742,
      "ounding": 4743,
      "soil": 4744,
      "spite": 4745,
      "cox": 4746,
      "claws": 4747,
      "wouldn": 4748,
      "bog": 4749,
      "dissol": 4750,
      "desire": 4751,
      "monot": 4752,
      "normally": 4753,
      "smal": 4754,
      "plex": 4755,
      "landing": 4756,
      "household": 4757,
      "understood": 4758,
      "settle": 4759,
      "impul": 4760,
      "venge": 4761,
      "rushed": 4762,
      "marsh": 4763,
      "iction": 4764,
      "sunken": 4765,
      "wildest": 4766,
      "torches": 4767,
      "towns": 4768,
      "squal": 4769,
      "flew": 4770,
      "warned": 4771,
      "walks": 4772,
      "personality": 4773,
      "intel": 4774,
      "sensations": 4775,
      "keeping": 4776,
      "supposed": 4777,
      "northward": 4778,
      "holding": 4779,
      "reasons": 4780,
      "limited": 4781,
      "advance": 4782,
      "bolt": 4783,
      "fireplace": 4784,
      "crawl": 4785,
      "fitted": 4786,
      "promise": 4787,
      "athed": 4788,
      "sitting": 4789,
      "sorry": 4790,
      "roughly": 4791,
      "chambers": 4792,
      "univers": 4793,
      "garret": 4794,
      "assumed": 4795,
      "candle": 4796,
      "insisted": 4797,
      "damnable": 4798,
      "copy": 4799,
      "evolution": 4800,
      "articulate": 4801,
      "fungi": 4802,
      "twice": 4803,
      "yawning": 4804,
      "psychological": 4805,
      "danger": 4806,
      "arrangement": 4807,
      "summoned": 4808,
      "ighest": 4809,
      "metery": 4810,
      "October": 4811,
      "Kalos": 4812,
      "gossip": 4813,
      "Fenner": 4814,
      "flesh": 4815,
      "wonders": 4816,
      "atmosphere": 4817,
      "sardonic": 4818,
      "Sothoth": 4819,
      "Aira": 4820,
      "Gard": 4821,
      "Khe": 4822,
      "Tow": 4823,
      "Where": 4824,
      "Yad": 4825,
      "Yug": 4826,
      "bath": 4827,
      "bade": 4828,
      "baying": 4829,
      "dled": 4830,
      "dug": 4831,
      "fed": 4832,
      "giant": 4833,
      "hun": 4834,
      "highest": 4835,
      "muttered": 4836,
      "page": 4837,
      "rage": 4838,
      "som": 4839,
      "ties": 4840,
      "tangible": 4841,
      "vor": 4842,
      "win": 4843,
      "zed": 4844,
      "inches": 4845,
      "edifice": 4846,
      "stol": 4847,
      "stage": 4848,
      "ara": 4849,
      "ites": 4850,
      "itious": 4851,
      "isol": 4852,
      "admir": 4853,
      "season": 4854,
      "icy": 4855,
      "wasn": 4856,
      "impressed": 4857,
      "chosen": 4858,
      "amed": 4859,
      "ament": 4860,
      "amorph": 4861,
      "unable": 4862,
      "unpleasant": 4863,
      "lives": 4864,
      "utmost": 4865,
      "terrest": 4866,
      "deter": 4867,
      "fron": 4868,
      "frank": 4869,
      "lose": 4870,
      "mead": 4871,
      "nebul": 4872,
      "sullen": 4873,
      "convent": 4874,
      "resc": 4875,
      "mantel": 4876,
      "tected": 4877,
      "awk": 4878,
      "perplex": 4879,
      "eval": 4880,
      "scale": 4881,
      "bleak": 4882,
      "docum": 4883,
      "phren": 4884,
      "brink": 4885,
      "boarded": 4886,
      "disliked": 4887,
      "pron": 4888,
      "audi": 4889,
      "ancestor": 4890,
      "hoary": 4891,
      "hospital": 4892,
      "dith": 4893,
      "howling": 4894,
      "distr": 4895,
      "hushed": 4896,
      "liter": 4897,
      "atters": 4898,
      "offer": 4899,
      "office": 4900,
      "drug": 4901,
      "intact": 4902,
      "bodily": 4903,
      "setting": 4904,
      "everyone": 4905,
      "temper": 4906,
      "merchant": 4907,
      "arranged": 4908,
      "smaller": 4909,
      "ritch": 4910,
      "contents": 4911,
      "studio": 4912,
      "stern": 4913,
      "mounting": 4914,
      "Wilcox": 4915,
      "valise": 4916,
      "captive": 4917,
      "helpless": 4918,
      "objective": 4919,
      "furry": 4920,
      "wooded": 4921,
      "Noyes": 4922,
      "vibr": 4923,
      "pitiful": 4924,
      "shoulder": 4925,
      "steadily": 4926,
      "varied": 4927,
      "terrors": 4928,
      "eldritch": 4929,
      "risen": 4930,
      "vaul": 4931,
      "valleys": 4932,
      "enchanted": 4933,
      "transm": 4934,
      "affair": 4935,
      "surviving": 4936,
      "caverns": 4937,
      "antiquarian": 4938,
      "experiments": 4939,
      "chanting": 4940,
      "machines": 4941,
      "departed": 4942,
      "welcome": 4943,
      "vegetable": 4944,
      "ponder": 4945,
      "formula": 4946,
      "concealed": 4947,
      "candles": 4948,
      "luck": 4949,
      "barked": 4950,
      "waning": 4951,
      "eccentric": 4952,
      "explanation": 4953,
      "limitless": 4954,
      "taverns": 4955,
      "pallid": 4956,
      "precise": 4957,
      "pinnacles": 4958,
      "suffered": 4959,
      "softly": 4960,
      "apparatus": 4961,
      "Whether": 4962,
      "anthropo": 4963,
      "paralle": 4964,
      "slimy": 4965,
      "indescribable": 4966,
      "Yaddith": 4967,
      "Yuggoth": 4968,
      "Ano": 4969,
      "Can": 4970,
      "Dou": 4971,
      "Mu": 4972,
      "Men": 4973,
      "Ori": 4974,
      "Pyramid": 4975,
      "River": 4976,
      "Sat": 4977,
      "Sep": 4978,
      "Upon": 4979,
      "Zad": 4980,
      "batter": 4981,
      "bbing": 4982,
      "caves": 4983,
      "dome": 4984,
      "emotions": 4985,
      "fumbling": 4986,
      "gib": 4987,
      "gables": 4988,
      "gamb": 4989,
      "hing": 4990,
      "jac": 4991,
      "loft": 4992,
      "mas": 4993,
      "mast": 4994,
      "mum": 4995,
      "makes": 4996,
      "obl": 4997,
      "sions": 4998,
      "saved": 4999
    },
    "merges": [
      "t h",
      "i n",
      "th e",
      "a n",
      "r e",
      "e d",
      "e r",
      "o n",
      "e n",
      "a t",
      "o u",
      "an d",
      "o f",
      "s t",
      "o r",
      "a r",
      "in g",
      "a l",
      "a s",
      "e s",
      "t o",
      "h e",
      "i t",
      "i s",
      "a d",
      "s e",
      "l e",
      "l y",
      "i c",
      "o m",
      "w h",
      "b e",
      "g h",
      "n o",
      "l d",
      "a c",
      "w as",
      "th at",
      "i m",
      "en t",
      "v e",
      "h ad",
      "i d",
      "l l",
      "i on",
      "o w",
      "c h",
      "a m",
      "w e",
      "w i",
      "gh t",
      "v er",
      "u r",
      "u n",
      "l i",
      "u t",
      "a b",
      "f or",
      "r o",
      "t er",
      "c e",
      "wi th",
      "d e",
      "f r",
      "i r",
      "al l",
      "l o",
      "a g",
      "- -",
      "m o",
      "es s",
      "ou s",
      "a in",
      "p e",
      "a y",
      "re d",
      "m e",
      "n e",
      "h is",
      "s h",
      "r i",
      "no t",
      "ou n",
      "om e",
      "ic h",
      "f e",
      "ou ld",
      "u l",
      "m y",
      "k e",
      "ou t",
      "wh ich",
      "on e",
      "T he",
      "a p",
      "s u",
      "fr om",
      "c t",
      "i l",
      "ar d",
      "g e",
      "c on",
      "o d",
      "we re",
      "b ut",
      "the r",
      "o l",
      "a ve",
      "i ght",
      "a st",
      "ou r",
      "q u",
      "re s",
      "m an",
      "th ing",
      "p l",
      "t e",
      "a w",
      "in d",
      "an t",
      "e x",
      "no w",
      "b y",
      "oun d",
      "i ll",
      "p o",
      "p er",
      "s ome",
      "ou gh",
      "t r",
      "e m",
      "i st",
      "at ion",
      "u s",
      "u p",
      "s o",
      "at e",
      "b l",
      "e t",
      "f o",
      "st r",
      "h im",
      "h ave",
      "c ould",
      "g r",
      "the y",
      "u st",
      "i f",
      "it y",
      "a re",
      "ac e",
      "o ld",
      "o se",
      "e v",
      "g re",
      "u m",
      "s c",
      "am e",
      "en d",
      "ow n",
      "on g",
      "i g",
      "id e",
      "ac k",
      "a k",
      "th is",
      "b le",
      "s p",
      "is h",
      "d o",
      "er s",
      "t im",
      "i ve",
      "o k",
      "ar t",
      "ver y",
      "the re",
      "c o",
      "be en",
      "he re",
      "wh en",
      "i ous",
      "l ess",
      "ab le",
      "a v",
      "c l",
      "a f",
      "w ould",
      "p ro",
      "p t",
      "w or",
      "it s",
      "c k",
      "o p",
      "k now",
      "i es",
      "t ain",
      "I t",
      "e ar",
      "the ir",
      "wh at",
      "p h",
      "c om",
      "b r",
      "T h",
      "b o",
      "li ght",
      "al ly",
      "t ed",
      "fo re",
      "the m",
      "u re",
      "d er",
      "e p",
      "mo re",
      "d is",
      "o ther",
      "g l",
      "p r",
      "t s",
      "c r",
      "an y",
      "it e",
      "se em",
      "a th",
      "s s",
      "H e",
      "c i",
      "o ver",
      "a u",
      "li ke",
      "ag e",
      "wh o",
      "ou ght",
      "mo st",
      "n ess",
      "ar k",
      "w here",
      "th r",
      "d id",
      "ion s",
      "ab out",
      "an ce",
      "m ent",
      "as s",
      "d es",
      "c ur",
      "s pe",
      "w ay",
      "n ight",
      "g o",
      "on ly",
      "e st",
      "i v",
      "re am",
      "f ul",
      "en ce",
      "gre at",
      "ac h",
      "ne w",
      "in to",
      "f l",
      "se l",
      "an ge",
      "or t",
      "w ard",
      "m ad",
      "seem ed",
      "u d",
      "y ou",
      "c ame",
      "be fore",
      "p res",
      "m on",
      "th an",
      "ur n",
      "tim e",
      "I n",
      "ev en",
      "w o",
      "af ter",
      ". .",
      "at ed",
      "h or",
      "in e",
      "c re",
      "thr ough",
      "for m",
      "ing s",
      "a ke",
      "p re",
      "s aw",
      "th ose",
      "en s",
      "c er",
      "th ough",
      "d own",
      "h o",
      "thing s",
      "a ir",
      "l ed",
      "sel f",
      "A n",
      "m ust",
      "an g",
      "ac t",
      "m en",
      "l ong",
      "ic al",
      "o b",
      "d i",
      "ic e",
      "v ed",
      "u e",
      "ic k",
      "re n",
      "s ed",
      "e ver",
      "le t",
      "t re",
      "p art",
      "w ind",
      "m ight",
      "on d",
      "h ow",
      "W h",
      "d ream",
      "at er",
      "f ar",
      "n or",
      "c or",
      "c lo",
      "a id",
      "c an",
      "ou se",
      "f ound",
      "s m",
      "s ide",
      "a red",
      "i p",
      "d ay",
      "e l",
      "f in",
      "t al",
      "know n",
      "t en",
      "ag ain",
      "se e",
      "p ed",
      "ar y",
      "d ist",
      "i le",
      "in k",
      "lo ok",
      "ar ter",
      "ig n",
      "s he",
      "str ange",
      "d en",
      "c ome",
      "h u",
      "p le",
      "r or",
      "v is",
      "i z",
      "a il",
      "wh ose",
      "i gh",
      "cer tain",
      "l ow",
      "m or",
      "bl ack",
      "l and",
      "m u",
      "c ent",
      "re ad",
      "i e",
      "i ble",
      "pl ace",
      "h ouse",
      "b er",
      "t le",
      "we ll",
      "t urn",
      "he ad",
      "su ch",
      "s in",
      "An d",
      "an s",
      "n ing",
      "un der",
      "The re",
      "ne ver",
      "f ir",
      "en ed",
      "re e",
      "ll ow",
      "d ark",
      "t ing",
      "up on",
      "th ought",
      "the se",
      "qu e",
      "t y",
      "mad e",
      "b ack",
      "h er",
      "i ly",
      "O n",
      "c ar",
      "C arter",
      "o t",
      "le y",
      "be g",
      "i ed",
      "mu ch",
      "c all",
      "r y",
      "s ur",
      "l it",
      "c le",
      "at ter",
      "do or",
      "st ill",
      "be y",
      "l es",
      "y ear",
      "e y",
      "se en",
      "of f",
      "an c",
      "re st",
      "ar ch",
      "ation s",
      "i al",
      "k new",
      "he ard",
      "B ut",
      "is e",
      "g u",
      "a ther",
      "c as",
      "f t",
      "st e",
      "l t",
      "bey ond",
      "fir st",
      "Th en",
      "v o",
      "to o",
      "A s",
      "t wo",
      "d r",
      "e f",
      "ri ble",
      "t ri",
      "the n",
      "l ast",
      "ro om",
      "h and",
      "in t",
      "wor ld",
      "u res",
      "s ing",
      "b od",
      "ct ed",
      "man y",
      "on ce",
      "k ed",
      "in s",
      "n er",
      "h ap",
      "ent ly",
      "w all",
      "to ld",
      "a z",
      "b ed",
      "f lo",
      "se t",
      "ne ar",
      "h al",
      "au se",
      "e very",
      "re al",
      "A r",
      "b u",
      "hu man",
      "at ch",
      "n ed",
      "st one",
      "an ci",
      "c ol",
      "c our",
      "s ound",
      "im p",
      "wi ll",
      "The y",
      "to w",
      "j e",
      "v en",
      "al most",
      "su b",
      "ear th",
      "hor ror",
      "ish ed",
      ".. .",
      "or y",
      "s er",
      "ow s",
      "c ity",
      "y et",
      "h igh",
      "ul ar",
      "en e",
      "ab ly",
      "c oun",
      "f ace",
      "h ar",
      "m ind",
      "s aid",
      "fe ar",
      "p ass",
      "an e",
      "ge t",
      "li fe",
      "i ld",
      "s on",
      "l ing",
      "n at",
      "wh ile",
      "ul t",
      "sin ce",
      "aw ay",
      "c ed",
      "d s",
      "at t",
      "le ft",
      "te ll",
      "some thing",
      "hal f",
      "h ill",
      "od s",
      "year s",
      "s l",
      "lit tle",
      "ac es",
      "fe lt",
      "ap pe",
      "g ed",
      "r u",
      "re g",
      "ab o",
      "v es",
      "po ss",
      "je ct",
      "m ar",
      "m al",
      "as h",
      "anci ent",
      "te m",
      "us ed",
      "or s",
      "s ay",
      "cur ious",
      "i an",
      "way s",
      "mo on",
      "m er",
      "ar r",
      "am p",
      "o c",
      "ou th",
      "c ause",
      "b ur",
      "ent s",
      "ou l",
      "y e",
      "in de",
      "te red",
      "beg an",
      "s y",
      "ic t",
      "fr ight",
      "k ind",
      "ing ly",
      "tim es",
      "c a",
      "th ink",
      "sh o",
      "ak ing",
      "it ion",
      "ct ion",
      "m in",
      "m ed",
      "s k",
      "s il",
      "with out",
      "con d",
      "u ll",
      "ey es",
      "h ide",
      "to ward",
      "f am",
      "j ust",
      "re l",
      "it ies",
      "no thing",
      "u g",
      "v ing",
      "sm all",
      "st re",
      "re ach",
      "b ro",
      "n ame",
      "be t",
      "abo ve",
      "r it",
      "pres s",
      "A t",
      "c ri",
      "con t",
      "c ess",
      "our s",
      "op en",
      "bod y",
      "en g",
      "i re",
      "w on",
      "ar ound",
      "ro ss",
      "W e",
      "m om",
      "st ud",
      "un known",
      "hide ous",
      "w ent",
      "g en",
      "st er",
      "turn ed",
      "s po",
      "ar s",
      "sh ip",
      "T his",
      "ain t",
      "av ing",
      "W ard",
      "m oun",
      "Th at",
      "k s",
      "be h",
      "th ree",
      "tr y",
      "o s",
      "k ing",
      "li ar",
      "in ter",
      "W il",
      "if ic",
      "g ro",
      "ter rible",
      "f re",
      "s un",
      "be cause",
      "dream s",
      "ri ght",
      "ap p",
      "d ou",
      "s ol",
      "l ater",
      "s ight",
      "ag es",
      "i x",
      "l ar",
      "b lo",
      "se a",
      "clo se",
      "in ed",
      "wi ld",
      "pl an",
      "st o",
      "de c",
      "gr ound",
      "f ind",
      "s le",
      "re p",
      "le g",
      "cour se",
      "re m",
      "ain ed",
      "op le",
      "F or",
      "c u",
      "v ast",
      "th s",
      "se cre",
      "od d",
      "mom ent",
      "ve l",
      "look ed",
      "go t",
      "i ther",
      "qu est",
      "inde ed",
      "as on",
      "fe et",
      "b or",
      "at ing",
      "flo or",
      "it ed",
      "is ed",
      "ut ter",
      "m ay",
      "v al",
      "y s",
      "lo g",
      "ag ue",
      "him self",
      "e red",
      "wh ol",
      "h a",
      "h as",
      "i a",
      "x t",
      "an other",
      "fe w",
      "u al",
      "am ong",
      "on es",
      "ow ed",
      "me mor",
      "wor k",
      "hap s",
      "er t",
      "be li",
      "p an",
      "t ill",
      "un g",
      "s ign",
      "ce pt",
      "de ad",
      "bl ed",
      "dou b",
      "i b",
      "er ing",
      "he ld",
      "ab y",
      "sp ace",
      "Wh en",
      "r id",
      "ar ing",
      "oun g",
      "beh ind",
      "M ar",
      "c al",
      "ge st",
      "de red",
      "ant s",
      "A ll",
      "p ast",
      "s had",
      "so on",
      "i end",
      "c es",
      "m it",
      "c ap",
      "fo llow",
      "be ing",
      "N e",
      "f f",
      "me m",
      "ch o",
      "ver s",
      "per i",
      "b re",
      "e le",
      "l ay",
      "l ine",
      "he l",
      "u se",
      "m s",
      "t or",
      "en ough",
      "pe ople",
      "wall s",
      "M y",
      "h am",
      "ful ly",
      "p ur",
      "al ways",
      "bo th",
      "tow n",
      "C ur",
      "m atter",
      "s qu",
      "al one",
      "to ok",
      "my self",
      "g one",
      "str u",
      "ak en",
      "que er",
      "moun tain",
      "mon str",
      "again st",
      "d im",
      "ve red",
      "out side",
      "at s",
      "wh is",
      "con sc",
      "spe c",
      "ob ject",
      "c y",
      "s ame",
      "y oung",
      "de ep",
      "b as",
      "d if",
      "su m",
      "f le",
      "p ar",
      "w ar",
      "an k",
      "en se",
      "ch ed",
      "pres ent",
      "f ur",
      "gen er",
      "consc ious",
      "f ol",
      "i ent",
      "w atch",
      "st ep",
      "pl ain",
      "who le",
      "spe ct",
      "wo od",
      "monstr ous",
      "m ist",
      "he av",
      "cr y",
      "c he",
      "m ake",
      "ro ck",
      "a pe",
      "en ess",
      "w al",
      "ment s",
      "i th",
      "p ri",
      "in c",
      "br ought",
      "D r",
      "w en",
      "wind ow",
      "a e",
      "v ague",
      "to m",
      "lar ge",
      "o th",
      "be came",
      "bl ing",
      "d den",
      "p ort",
      "on s",
      "or g",
      "fe ren",
      "call ed",
      "G re",
      "c are",
      "ro ad",
      "de ath",
      "bo ok",
      "poss ible",
      "Cur wen",
      "per haps",
      "Wh at",
      "f all",
      "g ave",
      "p ing",
      "t ly",
      "in ts",
      "le ad",
      "id ed",
      "ate ly",
      "S tre",
      "o g",
      "st and",
      "po s",
      "di re",
      "cle ar",
      "s ent",
      "v ent",
      "im ag",
      "end ed",
      "sk y",
      "Stre et",
      "u de",
      "u ally",
      "ac ed",
      "ant ic",
      "S ome",
      "as ed",
      "f ather",
      "p u",
      "w ater",
      "how ever",
      "vo ice",
      "H is",
      "d ri",
      "ur al",
      "cor d",
      "appe ared",
      "N o",
      "le ar",
      "ur ing",
      "ut e",
      "per son",
      "ev il",
      "M r",
      "p ict",
      "w a",
      "y ing",
      "in te",
      "ou d",
      "su dden",
      "fin ite",
      "cas e",
      "v ol",
      "id ent",
      "nor mal",
      "al ong",
      "li st",
      "b id",
      "h y",
      "v i",
      "am id",
      "e ach",
      "pe ct",
      "stre et",
      "n s",
      "other s",
      "al i",
      "fr iend",
      "C har",
      "g gest",
      "in ess",
      "id es",
      "ch ar",
      "su ggest",
      "let t",
      "Wil lett",
      "c ir",
      "k en",
      "p ol",
      "un d",
      "ous ly",
      "su re",
      "av es",
      "p s",
      "ne ed",
      "au ght",
      "Char les",
      "O f",
      "g a",
      "o st",
      "im al",
      "ce iv",
      "f aint",
      "g n",
      "s ens",
      "in es",
      "wh ite",
      "mo t",
      "iz ed",
      "whol ly",
      "1 9",
      "b ar",
      "se cond",
      "gh oul",
      "let ter",
      "sle ep",
      "ious ly",
      "h ome",
      "t ake",
      "ke ep",
      "co vered",
      "wind ows",
      "are n",
      "W est",
      "st art",
      "qu ite",
      "S o",
      "ad e",
      "ir d",
      "b es",
      "e as",
      "ion ed",
      "un t",
      "fe ct",
      "ex ist",
      "day s",
      "cont in",
      "it self",
      "mor ning",
      "bu ild",
      "reach ed",
      "m ark",
      "p it",
      "re mem",
      "be low",
      "ro of",
      "sh ould",
      "po int",
      "in ted",
      "qu i",
      "ck ed",
      "Ar k",
      "h ard",
      "p al",
      "pr of",
      "go od",
      "p ow",
      "v iv",
      "at ive",
      "at ures",
      "ag ed",
      "re mo",
      "ac ross",
      "ce ll",
      "des p",
      "Ark ham",
      "u red",
      "ow ing",
      "su p",
      "some times",
      "On es",
      "col le",
      "name less",
      "f ter",
      "g ods",
      "i er",
      "s ort",
      "gre w",
      "aby ss",
      "f ull",
      "w rit",
      "ad d",
      "fe el",
      "step s",
      "t wi",
      "me re",
      "con ne",
      "f ive",
      "st or",
      "air s",
      "ie ld",
      "tri ed",
      "A fter",
      "in st",
      "on y",
      "se arch",
      "ch es",
      "nor th",
      "doub t",
      "O ld",
      "b ene",
      "m is",
      "in ation",
      "cl im",
      "sto od",
      "ne xt",
      "ke pt",
      "ill ed",
      "Gre at",
      "c ast",
      "f our",
      "ic es",
      "ic ally",
      "gre en",
      "sc ream",
      "leg end",
      "ic ed",
      "bo y",
      "you th",
      "ste ad",
      "d ro",
      "v ar",
      "ch ild",
      "with in",
      "con s",
      "fo ot",
      "bene ath",
      "le ast",
      "for th",
      "sh all",
      "S t",
      "r ing",
      "as p",
      "is m",
      "dist ur",
      "d u",
      "h aving",
      "p ut",
      "pe ak",
      "ay ed",
      "sh ed",
      "any thing",
      "hill s",
      "r ound",
      "t es",
      "fr ag",
      "do g",
      "fam i",
      "b ul",
      "g old",
      "h old",
      "of ten",
      "res p",
      "aw n",
      "hor rible",
      "form ed",
      "iz e",
      "press ion",
      "a ut",
      "d am",
      "f ig",
      "j o",
      "t able",
      "ter ror",
      "gre y",
      "ie w",
      "hap p",
      "c old",
      "r a",
      "y our",
      "th in",
      "ser v",
      "m id",
      "s lo",
      "t it",
      "v iew",
      "re pe",
      "gl imp",
      ". \"",
      "f er",
      "g iv",
      "gr ave",
      "fright ful",
      "won der",
      "h ours",
      "s ense",
      "ll ed",
      "ard ed",
      "ex c",
      "inte rest",
      "h ous",
      "m ag",
      "n um",
      "re ason",
      "ch ange",
      "ap pro",
      "com ple",
      "dist ant",
      "cu liar",
      "fol k",
      "l im",
      "t aken",
      "at ure",
      "ant i",
      "anc y",
      "d one",
      "h all",
      "n one",
      "en ing",
      "se m",
      "id ence",
      "pe culiar",
      "z z",
      "on t",
      "ex t",
      "spo ke",
      "a ver",
      "r ather",
      "v ill",
      "in ct",
      "to p",
      "ro se",
      "sh ri",
      "my ster",
      "A ke",
      "a head",
      "g ing",
      "n arr",
      "w he",
      "st ro",
      "tain ed",
      "anc es",
      "Ne w",
      "Ake ley",
      "E n",
      "p ap",
      "al ed",
      "ex pl",
      "per s",
      "fam ily",
      "secre t",
      "e ld",
      "he ar",
      "ast er",
      "pl aces",
      "cent ur",
      "sho ck",
      "fami liar",
      "F r",
      "O ne",
      "s w",
      "st op",
      "ne y",
      "nat ural",
      "hous es",
      "r ic",
      "des cri",
      "vis it",
      "ail ed",
      "m a",
      "r an",
      "s im",
      "s mo",
      "s ave",
      "in cl",
      "or d",
      "al s",
      "we en",
      "te st",
      "ist er",
      "hand s",
      "memor y",
      "re co",
      "es e",
      "ap h",
      "wor ds",
      "ph ys",
      "dif feren",
      "t ou",
      "to ge",
      "se ver",
      "spe ak",
      "ang ed",
      "desp ite",
      "toge ther",
      "b ri",
      "b us",
      "r is",
      "ur ch",
      "il st",
      "ali en",
      "c ut",
      "g al",
      "de p",
      "lo re",
      "ul f",
      "tr u",
      "pro b",
      "look ing",
      "contin u",
      "T o",
      "Y ou",
      "d a",
      "d read",
      "re turn",
      "wh y",
      "po se",
      "do ct",
      "far m",
      "el se",
      "org an",
      "sever al",
      "c um",
      "w r",
      "al ity",
      "sound s",
      "f act",
      "re w",
      "om an",
      "ac coun",
      "ce ed",
      "de l",
      "ri ver",
      "tal es",
      "vis ible",
      "bet ween",
      "g ive",
      "o re",
      "ck s",
      "nat ure",
      "G il",
      "a h",
      "l ate",
      "s oul",
      "es ome",
      "be ings",
      "not iced",
      "amid st",
      "B e",
      "d uring",
      "f ant",
      "f ish",
      "o log",
      "u su",
      "w ide",
      "re ve",
      "on ic",
      "li ving",
      "de t",
      "em ent",
      "br ain",
      "fl ash",
      "she w",
      "sing ular",
      "w ish",
      "st ars",
      "ion al",
      "lo st",
      "sh ap",
      "ke y",
      "ast ic",
      "appe ar",
      "b ing",
      "h id",
      "r um",
      "w ise",
      "z e",
      "at es",
      "wh ilst",
      "po or",
      "ph o",
      "tre es",
      "bet ter",
      "b urn",
      "ag o",
      "ke t",
      "end ing",
      "sin ister",
      "shad ow",
      "Gil man",
      "h ast",
      "v an",
      "as e",
      "om in",
      "no on",
      "res s",
      "great er",
      "tre m",
      "tal k",
      "pass ed",
      "oc cas",
      "r al",
      "er y",
      "ri ed",
      "ant ed",
      "com ing",
      "even ing",
      "gu ess",
      "gro tes",
      "lear ned",
      "reco gn",
      "f ac",
      "g le",
      "al t",
      "light s",
      "near ly",
      "narr ow",
      "c ross",
      "l s",
      "me an",
      "tr ans",
      "sp ir",
      "blo od",
      "Mar sh",
      "c ult",
      "d on",
      "s a",
      "re li",
      "for t",
      "me t",
      "ri f",
      "sel ves",
      "fre sh",
      "follow ed",
      "qui et",
      "N ow",
      "h ab",
      "h ist",
      "it ive",
      "Th ese",
      "cur sed",
      "led ge",
      "i ver",
      "m i",
      "w it",
      "al so",
      "he ll",
      "om ed",
      "ve lo",
      "ant ly",
      "sc r",
      "sc ar",
      "In n",
      "book s",
      "b ers",
      "e k",
      "l eng",
      "m ess",
      "p a",
      "s light",
      "ter n",
      "fr ont",
      "ous and",
      "il t",
      "ard s",
      "ist s",
      "bo t",
      "ci al",
      "iv es",
      "ste ep",
      "hel p",
      "gener al",
      "mere ly",
      "N or",
      "th y",
      "in cre",
      "st ones",
      "st airs",
      "as k",
      "ut ion",
      "sh ud",
      "su c",
      "mad ness",
      "dist ance",
      "sudden ly",
      "A l",
      "L ake",
      "c at",
      "f ree",
      "p ain",
      "v a",
      "at ic",
      "str ang",
      "part s",
      "app aren",
      "En gl",
      "p or",
      "ad v",
      "wh om",
      "ab s",
      "for got",
      "de v",
      "us ion",
      "um bling",
      "less ly",
      "ear ly",
      "spec im",
      "W ith",
      "b ol",
      "c amp",
      "es pe",
      "be red",
      "ex peri",
      "sc ene",
      "com m",
      "com mon",
      "grotes que",
      "J o",
      "T H",
      "a i",
      "s ion",
      "th ick",
      "in ing",
      "re t",
      "ab or",
      "fr antic",
      "sh ape",
      "tr ave",
      "reg ion",
      "won dered",
      "ha un",
      "appro ach",
      "e ither",
      "m us",
      "re ally",
      "or der",
      "po sed",
      "tr ad",
      "if ul",
      "oc cur",
      "ye llow",
      "fre qu",
      "beli ev",
      "heav y",
      "m ass",
      "r ad",
      "r un",
      "s at",
      "be aut",
      "we st",
      "li ve",
      "con f",
      "part y",
      "read y",
      "stru ct",
      "cry pt",
      "ghoul s",
      "leng th",
      "A m",
      "G od",
      "th ousand",
      "is on",
      "ch urch",
      "ul pt",
      "con cer",
      "gr and",
      "op ened",
      "des er",
      "coun try",
      "comple te",
      "e ve",
      "f ield",
      "s ix",
      "re call",
      "re cord",
      "ve st",
      "de li",
      "gr aph",
      "ig in",
      "dark ness",
      "ib ly",
      "hid den",
      "1 8",
      "b s",
      "b al",
      "s n",
      "s low",
      "sh ort",
      "ex pe",
      "ho pe",
      "Wh ate",
      "fin ally",
      "val ley",
      "doct or",
      "h our",
      "m ater",
      "n am",
      "s we",
      "u es",
      "at tered",
      "pe red",
      "su per",
      "ex p",
      "sc ulpt",
      "fl ed",
      "can not",
      "sm outh",
      "mountain s",
      "pow er",
      "asp he",
      "differen t",
      "Inn smouth",
      "1 7",
      "r ace",
      "com p",
      "br id",
      "tem pt",
      "bor n",
      "vi ol",
      "S u",
      "f ire",
      "g ard",
      "st ate",
      "or igin",
      "ay ing",
      "ast e",
      "bl asphe",
      "ru ins",
      "sy m",
      "sil ent",
      "I f",
      "P ro",
      "S h",
      "b ad",
      "e ch",
      "g ulf",
      "n i",
      "th or",
      "re fle",
      "en ces",
      "ou red",
      "it ions",
      "it ude",
      "le vel",
      "ol ph",
      "ci ally",
      "rem ain",
      "dog s",
      "Fr om",
      "B r",
      "g es",
      "t u",
      "t ent",
      "li br",
      "fe ll",
      "il ed",
      "il es",
      "up per",
      "she l",
      "sur face",
      "giv en",
      "whe ther",
      "prob ably",
      "expe cted",
      "c li",
      "m are",
      "s and",
      "s our",
      "s outh",
      "ic s",
      "be come",
      "ex cept",
      "ak ed",
      "know ledge",
      "pr ints",
      "des c",
      "pre p",
      "ang u",
      "di ed",
      "anc ed",
      "az ed",
      "eld er",
      "B l",
      "l ur",
      "av en",
      "pr im",
      "d ust",
      "w ished",
      "be st",
      "lo cal",
      "tr ou",
      "co ver",
      "cl oud",
      "cr aw",
      "night mare",
      "bro ken",
      "ix ed",
      "mater ial",
      "p ped",
      "s ought",
      "on ed",
      "ab normal",
      "them selves",
      "ple as",
      "horror s",
      "stud y",
      "conscious ness",
      "dire ction",
      "street s",
      "b it",
      "c ats",
      "d ed",
      "i red",
      "l one",
      "s es",
      "he ight",
      "mo ther",
      "str ong",
      "if ied",
      "bo re",
      "ner v",
      "beli eve",
      "ceiv ed",
      "twi light",
      "usu al",
      "E d",
      "R and",
      "f ut",
      "h und",
      "id ently",
      "un cle",
      "tr ace",
      "um bled",
      "clo sed",
      "sm ic",
      "ef fect",
      "stre t",
      "plan et",
      "secre ts",
      "pict ure",
      "Whate ley",
      "hund red",
      "S e",
      "b ound",
      "f aces",
      "m ous",
      "en ch",
      "id er",
      "li es",
      "fe llow",
      "il ity",
      "aw s",
      "bo x",
      "fin al",
      "med i",
      "build ing",
      "cell ar",
      "legend s",
      "espe cially",
      "d ig",
      "l um",
      "ly ing",
      "tim ate",
      "pro du",
      "gl ass",
      "form s",
      "long er",
      "cas es",
      "finite ly",
      "var ious",
      "scar ce",
      "forgot ten",
      "deser ted",
      "e qu",
      "g y",
      "g er",
      "h air",
      "l an",
      "m ing",
      "th ro",
      "as c",
      "li ed",
      "for bid",
      "mo ved",
      "ne igh",
      "spe ech",
      "ho st",
      "On ce",
      "beg in",
      "tow er",
      "spo t",
      "dec ided",
      "dire ct",
      "det ail",
      "D en",
      "f if",
      "g ain",
      "g ate",
      "l ines",
      "v iously",
      "y r",
      "le ave",
      "ag ged",
      "sh ar",
      "some what",
      "old er",
      "sc ient",
      "ob sc",
      "low er",
      "tem ple",
      "ele ct",
      "whis pered",
      "D e",
      "M an",
      "a x",
      "f it",
      "m ill",
      "for ce",
      "em on",
      "des ert",
      "fl u",
      "mor bid",
      "poss ess",
      "letter s",
      "remem ber",
      "Rand olph",
      "A b",
      "D an",
      "H ill",
      "O r",
      "p ath",
      "s now",
      "of t",
      "st ri",
      "ent ered",
      "de velo",
      "tr an",
      "af f",
      "com pan",
      "tal ked",
      "black ness",
      "reg ular",
      "inc red",
      "vill age",
      "fant astic",
      "a im",
      "at ory",
      "ll ing",
      "wi fe",
      "qu ick",
      "ex am",
      "gr ow",
      "br ing",
      "pres sed",
      "ey e",
      "bu ilt",
      "C ap",
      "J ose",
      "R e",
      "b our",
      "e per",
      "l abor",
      "p at",
      "in ary",
      "in ner",
      "re turned",
      "at tempt",
      "al ive",
      "ac cursed",
      "ter s",
      "co smic",
      "pr om",
      "go ing",
      "ren t",
      "sur viv",
      "every thing",
      "dim ens",
      "sa fe",
      "cli ff",
      "shar p",
      "a the",
      "c ities",
      "d rew",
      "g ent",
      "s it",
      "s ail",
      "li ved",
      "ter min",
      "pl es",
      "after ward",
      "act ion",
      "car ven",
      "ca ver",
      "peak s",
      "hell ish",
      "Jose ph",
      "L e",
      "P r",
      "S he",
      "b and",
      "f ash",
      "p ie",
      "s pl",
      "an imal",
      "cre atures",
      "os ity",
      "rep or",
      "sign ific",
      "peri od",
      "tor ch",
      "M is",
      "k no",
      "l ath",
      "t on",
      "it able",
      "ch a",
      "ch an",
      "ch anged",
      "me et",
      "me tal",
      "sh owed",
      "ast s",
      "gr ou",
      "sp read",
      "av ed",
      "gl ad",
      "pri est",
      "pol ice",
      "accoun t",
      "libr ary",
      "C h",
      "f ab",
      "f illed",
      "l angu",
      "p es",
      "s ize",
      "mo der",
      "fe e",
      "tr ue",
      "gr ad",
      "pro ved",
      "far ther",
      "bod ies",
      "pass age",
      "curious ly",
      "occur red",
      "B ost",
      "c ul",
      "c us",
      "m ain",
      "s or",
      "t ive",
      "tr ack",
      "co t",
      "ho od",
      "cor rid",
      "att ic",
      "wa it",
      "mot ion",
      "vest ig",
      "K ing",
      "f ancy",
      "l atter",
      "m ort",
      "m outh",
      "p en",
      "r ow",
      "al e",
      "im press",
      "lo ss",
      "lo cked",
      "ne cess",
      "fe atures",
      "ex tr",
      "br ick",
      "after noon",
      "act ual",
      "col um",
      "stru ck",
      "object s",
      "pu bl",
      "anti qu",
      "haun ted",
      "Am mi",
      "prep ared",
      "Bost on",
      "a out",
      "r s",
      "r am",
      "r ust",
      "st at",
      "st ance",
      "as pect",
      "is es",
      "so ci",
      "ok ed",
      "cr ow",
      "ment al",
      "pres ence",
      "sing le",
      "ca pe",
      "wal k",
      "lead ing",
      "happ ened",
      "tit an",
      "tou ch",
      "van ished",
      "d well",
      "r up",
      "v ic",
      "y ard",
      "es cape",
      "le ap",
      "mo ve",
      "ne are",
      "pl aced",
      "po inted",
      "bl ind",
      "sp r",
      "pre h",
      "sur pr",
      "imp ort",
      "blo cks",
      "char ac",
      "gold en",
      "shri e",
      "b ly",
      "d ared",
      "i ac",
      "r ough",
      "an gl",
      "as ked",
      "it al",
      "id ly",
      "ex per",
      "ex act",
      "ist ic",
      "ev idently",
      "pro per",
      "az e",
      "fright ened",
      "pur su",
      "remo te",
      "frag ments",
      "fig ure",
      "scarce ly",
      "obsc ure",
      "P ick",
      "st u",
      "wh ate",
      "ul ous",
      "des ign",
      "hu ge",
      "beg un",
      "rem ained",
      "quest ion",
      "utter ly",
      "unt il",
      "remem bered",
      "continu ed",
      "specim ens",
      "sour ce",
      "nerv ous",
      "scient ific",
      "labor atory",
      "whate ver",
      "b an",
      "h op",
      "m ir",
      "u ct",
      "th ar",
      "ou ds",
      "we ird",
      "ter r",
      "ce ased",
      "sh un",
      "not e",
      "res ol",
      "form er",
      "vis ions",
      "vo id",
      "odd ly",
      "sign s",
      "bre ak",
      "clear ly",
      "writ ing",
      "conne cted",
      "distur bed",
      "beaut y",
      "slow ly",
      ". '",
      "P er",
      "n y",
      "s li",
      "th ir",
      "an n",
      "st ory",
      "se ven",
      "fe ared",
      "te en",
      "aw ful",
      "ex pect",
      "em pt",
      "pr imal",
      "pres er",
      "part ic",
      "gu ard",
      "bro od",
      "sun set",
      "whis per",
      "watch ed",
      "imag ination",
      "resp ond",
      "shock ing",
      "stop ped",
      "reli ef",
      "apparen tly",
      "forbid den",
      "Pick man",
      "I I",
      "N ah",
      "c ave",
      "d ing",
      "f light",
      "f urn",
      "m ason",
      "t all",
      "w oman",
      "re called",
      "at tle",
      "st al",
      "im ent",
      "im medi",
      "ch am",
      "ch ant",
      "we ek",
      "un ts",
      "ne l",
      "The ir",
      "od our",
      "et y",
      "gr own",
      "cur i",
      "car ved",
      "vo ices",
      "high er",
      "pict ures",
      "roof s",
      "gal ley",
      "hab it",
      "bot tom",
      "Ed ward",
      "U l",
      "f ic",
      "h ur",
      "i us",
      "l au",
      "m ur",
      "m ach",
      "o ce",
      "s me",
      "t went",
      "w and",
      "at ers",
      "st ar",
      "ar m",
      "le st",
      "im age",
      "ut tered",
      "ter ing",
      "me ans",
      "con v",
      "qu arter",
      "cl ouds",
      "follow ing",
      "inst ant",
      "mason ry",
      "K ad",
      "N ot",
      "b ir",
      "d we",
      "p ull",
      "v ious",
      "x ious",
      "le an",
      "be aring",
      "de part",
      "pl ic",
      "te le",
      "ex pression",
      "ear s",
      "land s",
      "On ly",
      "tow ers",
      "sil ence",
      "wal ked",
      "vague ly",
      "fall en",
      "19 2",
      "fut ure",
      "moder n",
      "dwe lt",
      "c ust",
      "f a",
      "h int",
      "j ud",
      "l ink",
      "p se",
      "p ill",
      "v ac",
      "v ir",
      "en coun",
      "at a",
      "st em",
      "ad ed",
      "wh ar",
      "be held",
      "we l",
      "un i",
      "man ner",
      "bl ue",
      "sc ri",
      "cr umbling",
      "ment ioned",
      "ud ed",
      "thought s",
      "bur st",
      "bur ied",
      "ca used",
      "close ly",
      "tom b",
      "start ed",
      "slo pe",
      "num ber",
      "pap ers",
      "centur y",
      "bus iness",
      "shap es",
      "TH E",
      "lau gh",
      "B ar",
      "c ro",
      "d y",
      "g ar",
      "p ip",
      "v ap",
      "in vestig",
      "is ing",
      "ve get",
      "ch ing",
      "pe an",
      "po st",
      "tri p",
      "real ity",
      "mar ble",
      "sol id",
      "pos ition",
      "bes ide",
      "colle ge",
      "serv ants",
      "publ ic",
      "Nah um",
      "curi osity",
      "twent y",
      "E ar",
      "P o",
      "m aking",
      "p on",
      "r hy",
      "al though",
      "ent ion",
      "ct ic",
      "pl ane",
      "ack ed",
      "ive ly",
      "fore st",
      "might y",
      "cor ner",
      "ot ic",
      "stand ing",
      "cir cum",
      "ga unts",
      "myster y",
      "pap er",
      "experi ence",
      "believ ed",
      "cha os",
      "B y",
      "M e",
      "b af",
      "e ast",
      "e cho",
      "f ast",
      "n on",
      "o te",
      "t aking",
      "w ri",
      "st ir",
      "im pression",
      "ent ire",
      "not es",
      "fe red",
      "pl ayed",
      "ex plain",
      "cl aw",
      "pre ci",
      "sy stem",
      "memor ies",
      "fur ther",
      "exist ence",
      "cons ider",
      "glimp sed",
      "gard ens",
      "Bl ake",
      "rhy th",
      "J er",
      "e ight",
      "l er",
      "p ul",
      "t un",
      "ed ge",
      "ou ter",
      "al y",
      "ab les",
      "ul timate",
      "my st",
      "qu ality",
      "te ct",
      "pt ion",
      "wor d",
      "form ation",
      "act ually",
      "head s",
      "mind s",
      "mar ve",
      "squ are",
      "mark ed",
      "sup p",
      "dev il",
      "S ir",
      "i or",
      "m ine",
      "p ping",
      "r ap",
      "s ides",
      "t ic",
      "v ain",
      "v ings",
      "the red",
      "re vel",
      "st ream",
      "or ies",
      "ac les",
      "li e",
      "ab and",
      "con cl",
      "con ceiv",
      "per fect",
      "light ed",
      "He re",
      "wo ods",
      "aught er",
      "pal e",
      "prof ess",
      "tru th",
      "hist ory",
      "pa used",
      "Dan forth",
      ", \"",
      "i res",
      "u c",
      "w aters",
      "th under",
      "re sem",
      "er ous",
      "ar re",
      "as su",
      "le aving",
      "ag on",
      "fe ver",
      "ap s",
      "pl ate",
      "end ous",
      "ide a",
      "cl ut",
      "did n",
      "iv eness",
      "form ul",
      "see k",
      "dist inct",
      "strange ly",
      "certain ly",
      "fir m",
      "att ention",
      "sho re",
      "rem ark",
      "shad ows",
      "list ened",
      "prof ound",
      "mag ic",
      "Jo h",
      "Den is",
      "incred ible",
      "oce an",
      ". ,",
      "E ven",
      "H ow",
      "c aught",
      "d om",
      "f aced",
      "g ig",
      "r ain",
      "r ise",
      "w aves",
      "th ird",
      "re cent",
      "ch ance",
      "de al",
      "lo ve",
      "mo ck",
      "me ant",
      "ul ts",
      "con ce",
      "ill ing",
      "sp ort",
      "ob ser",
      "clo ck",
      "iz arre",
      "arch a",
      "set t",
      "high ly",
      "fear s",
      "open ing",
      "whol esome",
      "pur pose",
      "sum mer",
      "ony x",
      "cast le",
      "exc ited",
      "ris ing",
      "pho sp",
      "spir it",
      "rad i",
      "sym bol",
      "langu age",
      "preh ens",
      "Kad ath",
      "P e",
      "b izarre",
      "c and",
      "d iv",
      "d awn",
      "g as",
      "p sy",
      "x et",
      "be arded",
      "ch im",
      "for ced",
      "ro t",
      "ag re",
      "ap ert",
      "gr owing",
      "co ll",
      "br u",
      "ho res",
      "room s",
      "mal ign",
      "bas e",
      "fol ks",
      "care fully",
      "eas y",
      "writ ten",
      "add ed",
      "mid night",
      "dep ths",
      "da emon",
      "frequ ent",
      "Pro v",
      "phosp hores",
      "C y",
      "k at",
      "l amp",
      "o ok",
      "w ich",
      "in n",
      "in side",
      "re present",
      "on om",
      "ar se",
      "he al",
      "ad mit",
      "ous ed",
      "me chan",
      "con vers",
      "des per",
      "spe cial",
      "ick ed",
      "build ings",
      "stor m",
      "reve aled",
      "elect ric",
      "gent le",
      "caver n",
      "Mis kat",
      "gig antic",
      "Miskat onic",
      "N y",
      "d amp",
      "f air",
      "g ress",
      "k in",
      "l u",
      "w aking",
      "al ley",
      "be ar",
      "ac ing",
      "pl ay",
      "str ug",
      "pro port",
      "cor respond",
      "tal e",
      "cri pt",
      "All en",
      "twi st",
      "bri ef",
      "occas ion",
      "mess age",
      "stret ched",
      "Prov idence",
      "O ther",
      "S al",
      "U n",
      "c up",
      "r ange",
      "s ick",
      "t in",
      "t ur",
      "w ing",
      "w aste",
      "re f",
      "en ath",
      "ic ate",
      "be am",
      "de cl",
      "de termin",
      "ct ions",
      "us cript",
      "so ph",
      "bl ast",
      "gr ass",
      "af t",
      "pr act",
      "ment ion",
      "ten se",
      "ans w",
      "car ried",
      "As enath",
      "ins ist",
      "col our",
      "stud ied",
      "dec ad",
      "matter s",
      "mist ak",
      "dam n",
      "repe ated",
      "ord inary",
      "ceed ed",
      "Engl and",
      "Cap t",
      "partic ular",
      "Jer my",
      "! \"",
      "M ost",
      "b ark",
      "c of",
      "g lo",
      "h um",
      "h ier",
      "i ans",
      "l aid",
      "m ould",
      "in ous",
      "se ized",
      "ly ph",
      "un seen",
      "ag er",
      "sh ot",
      "pl ed",
      "dis cus",
      "hor iz",
      "vis ion",
      "ie f",
      "anc ing",
      "dr awn",
      "get ting",
      "mar vel",
      "bro ad",
      "vers ity",
      "spec ul",
      "dif fic",
      "og lyph",
      "expl ic",
      "shew ed",
      "shud der",
      "suc cess",
      "Br own",
      "E l",
      "P aw",
      "f asc",
      "l a",
      "m ixed",
      "o id",
      "s an",
      "w an",
      "y ed",
      "in vol",
      "ed s",
      "er al",
      "ar ctic",
      "un can",
      "some how",
      "co p",
      "cl ass",
      "cl aim",
      "Th ose",
      "cr own",
      "spe cted",
      "ang le",
      "part ly",
      "back ground",
      "cond ition",
      "cho ol",
      "pers ist",
      "sim ple",
      "pho to",
      "strang er",
      "quick ly",
      "rhyth m",
      "plate au",
      "archa ic",
      "hier oglyph",
      "H ad",
      "b ones",
      "d le",
      "e tern",
      "f anci",
      "st ren",
      "ar ri",
      "al ready",
      "as soci",
      "ent ity",
      "ch ief",
      "we ak",
      "li er",
      "ab sol",
      "ce line",
      "mo ving",
      "sh ow",
      "sh ut",
      "not ice",
      "fe st",
      "su spected",
      "po c",
      "per il",
      "em er",
      "pro cess",
      "br is",
      "dis co",
      "dis covered",
      "ud ing",
      "pre t",
      "dream ed",
      "cor ds",
      "clo pean",
      "read ing",
      "car vings",
      "door s",
      "moon light",
      "Mar celine",
      "cho log",
      "mot ions",
      "hard ly",
      "abyss es",
      "clim bed",
      "anti que",
      "dread ed",
      "appear ance",
      "Engl ish",
      "grand father",
      "blasphe mous",
      "Jermy n",
      "Paw tu",
      "fanci ed",
      "G o",
      "O ut",
      "W ar",
      "a fr",
      "g ust",
      "k y",
      "l ind",
      "m iles",
      "n al",
      "p atter",
      "s ac",
      "s ong",
      "w ro",
      "in stead",
      "an im",
      "st ench",
      "or ous",
      "ar ily",
      "se qu",
      "un mistak",
      "de gre",
      "de finite",
      "me as",
      "oun tain",
      "ex tre",
      "po ints",
      "ate ful",
      "ev ol",
      "pro dig",
      "cre ature",
      "dr aw",
      "az ing",
      "reg ard",
      "stud ies",
      "try ing",
      "fur tive",
      "spect ral",
      "pu zz",
      "need ed",
      "centur ies",
      "farm house",
      "cross ed",
      "slight ly",
      "comm un",
      "yr amid",
      "impress ions",
      "empt y",
      "encoun tered",
      "absol ute",
      "Pawtu xet",
      "wro te",
      "E x",
      "L eng",
      "M ay",
      "l ad",
      "in qu",
      "in flu",
      "st up",
      "al together",
      "se par",
      "ic on",
      "gh ast",
      "ac cord",
      "ter rif",
      "ir on",
      "lo t",
      "lo ath",
      "oun t",
      "ap art",
      "ct ing",
      "con st",
      "ther n",
      "know s",
      "seem s",
      "tre e",
      "sur round",
      "Ar mit",
      "feel ing",
      "child ren",
      "phys ic",
      "trou ble",
      "fee ble",
      "necess ary",
      "vic tim",
      "resol ved",
      "apert ure",
      "stren g",
      "afr aid",
      "extre me",
      "Armit age",
      "D un",
      "L i",
      "b are",
      "c ou",
      "h ed",
      "h inted",
      "s wi",
      "in explic",
      "he art",
      "ll s",
      "ch oked",
      "we red",
      "de mon",
      "ne ither",
      "sh r",
      "man kind",
      "sc attered",
      "end less",
      "art ic",
      "gl ance",
      "ho llow",
      "ink ing",
      "ail ing",
      "ey ed",
      "gu ide",
      "app ing",
      "pan ic",
      "bre ath",
      "cy lind",
      "dro pped",
      "glimp se",
      "phys ical",
      "gle am",
      "wit ch",
      "va ult",
      "brid ge",
      "gulf s",
      "signific ance",
      "cot t",
      "shun ned",
      "horiz on",
      "disco very",
      "D er",
      "O l",
      "a is",
      "d are",
      "e c",
      "f at",
      "f un",
      "f iend",
      "g od",
      "h ence",
      "p aren",
      "r in",
      "u ous",
      "th us",
      "in tell",
      "the d",
      "er o",
      "en cy",
      "om en",
      "no ise",
      "su sp",
      "su ff",
      "il ing",
      "us ing",
      "str ain",
      "pro ve",
      "wor n",
      "wor st",
      "ci ph",
      "mon ths",
      "di zz",
      "sl ant",
      "Ne cr",
      "mis sing",
      "abs ence",
      "concer ning",
      "sculpt ures",
      "pleas ant",
      "fash ion",
      "thir ty",
      "Ul thar",
      "convers ation",
      "Der by",
      "intell ig",
      "0 0",
      "G ods",
      "a thing",
      "b ig",
      "d ata",
      "e ks",
      "h ang",
      "n a",
      "s ane",
      "u str",
      "w ings",
      "in v",
      "re cords",
      "es cap",
      "ac cess",
      "sp ring",
      "when ce",
      "com b",
      "com pl",
      "com men",
      "gl ing",
      "gl ow",
      "au thor",
      "sub ject",
      "person s",
      "viv id",
      "frag ment",
      "shap ed",
      "incre as",
      "incre ased",
      "approach ed",
      "struct ure",
      "lone ly",
      "detail s",
      "fab ulous",
      "cof fin",
      "Y et",
      "a it",
      "b right",
      "f ung",
      "h ints",
      "i lo",
      "j our",
      "j est",
      "k illed",
      "p air",
      "t w",
      "t ro",
      "y aw",
      "er tain",
      "st air",
      "ar ms",
      "ch air",
      "ay s",
      "te xt",
      "ant arctic",
      "ev ent",
      "sp here",
      "ph en",
      "pr ison",
      "In di",
      "ob viously",
      "ins ane",
      "sil ver",
      "ug s",
      "Wil bur",
      "doub ted",
      "imag in",
      "Some thing",
      "sens es",
      "slo pes",
      "olog ical",
      "occas ional",
      "Per haps",
      "tele ph",
      "pip ing",
      "agre ed",
      "onom icon",
      "streng th",
      "Necr onomicon",
      "1 6",
      "M art",
      "O bed",
      "W al",
      "b old",
      "c ab",
      "f il",
      "f ailed",
      "r ats",
      "s ou",
      "or ted",
      "is land",
      "ac ted",
      "ut es",
      "for ward",
      "pe st",
      "my th",
      "ation al",
      "ate st",
      "if y",
      "sc en",
      "wor ship",
      "pr ay",
      "cr ude",
      "ob tained",
      "under stand",
      "ane k",
      "tell ing",
      "cap t",
      "ele ph",
      "Mr s",
      "list en",
      "list ening",
      "cir cle",
      "inst inct",
      "dro ve",
      "fig ures",
      "shud dered",
      "mus ic",
      "mill ion",
      "charac ter",
      "ote p",
      "marve ll",
      "Ny ar",
      "prodig ious",
      "H er",
      "I s",
      "b ent",
      "c ence",
      "e ager",
      "f fled",
      "s av",
      "re ceived",
      "st ation",
      "ar n",
      "im e",
      "lo ose",
      "lo ck",
      "ap ped",
      "fo ld",
      "gre atest",
      "Th ough",
      "like wise",
      "most ly",
      "des cent",
      "vis ited",
      "world s",
      "ru b",
      "reg ions",
      "find ing",
      "pos ite",
      "suggest ed",
      "suggest ion",
      "exist ed",
      "organ ic",
      "produ ced",
      "fif ty",
      "lath otep",
      "brood ing",
      "Ear th",
      "psy cholog",
      "photo graph",
      "Nyar lathotep",
      "D es",
      "H ouse",
      "O ur",
      "R ace",
      "T e",
      "b ow",
      "c ular",
      "d ang",
      "r att",
      "in formation",
      "ar ian",
      "ad ing",
      "be l",
      "be asts",
      "ch ang",
      "ver t",
      "un e",
      "un natural",
      "de st",
      "de tect",
      "sh ing",
      "sh out",
      "fe cted",
      "il ar",
      "con tr",
      "qu aint",
      "res ist",
      "man sion",
      "ex ceed",
      "ill s",
      "cr u",
      "fl ame",
      "di ary",
      "ip s",
      "she er",
      "arr ange",
      "bro ke",
      "sle pt",
      "quest ions",
      "beli ef",
      "squ at",
      "eas ily",
      "ra ised",
      "fer red",
      "hist or",
      "thor ough",
      "desc ended",
      "Or ne",
      "priest s",
      "colum ns",
      "hop ed",
      "cham ber",
      "conceiv able",
      "J ust",
      "L ater",
      "W as",
      "b ank",
      "f av",
      "f ren",
      "h es",
      "i o",
      "l aw",
      "m ical",
      "n t",
      "p aint",
      "s oft",
      "in finitely",
      "be ard",
      "ver se",
      "li ked",
      "de stro",
      "ol s",
      "te l",
      "sp ent",
      "wor se",
      "ear lier",
      "ep ing",
      "pr in",
      "like ly",
      "fl ing",
      "pre ced",
      "ty pe",
      "ry ing",
      "real m",
      "real ized",
      "sub stance",
      "nat ive",
      "hideous ly",
      "aby rin",
      "mist s",
      "large ly",
      "distur bing",
      "resp ons",
      "wr ong",
      "Nor th",
      "swe pt",
      "super st",
      "origin al",
      "begin ning",
      "develo ped",
      "grou p",
      "grad ually",
      "corrid or",
      "mort al",
      "vir t",
      "answ er",
      "loath some",
      "commen ced",
      "A mer",
      "E gy",
      "G e",
      "M er",
      "R oman",
      "W ill",
      "c ing",
      "g ained",
      "h ung",
      "l ack",
      "l abyrin",
      "v ist",
      "w ant",
      "y er",
      "z en",
      "in str",
      "re vol",
      "or dered",
      "be wild",
      "un iver",
      "res sed",
      "ex plan",
      "tr ain",
      "bl es",
      "ev ents",
      "um s",
      "ish ing",
      "cl es",
      "cl am",
      "br an",
      "light ning",
      "fore ign",
      "dis appeared",
      "fl ow",
      "cent ral",
      "off ic",
      "rest ed",
      "earth ly",
      "har bour",
      "say s",
      "ca ut",
      "ship s",
      "among st",
      "deep ly",
      "sum mon",
      "stor ies",
      "expl or",
      "shadow y",
      "complete ly",
      "field s",
      "neare r",
      "marvell ous",
      "Amer ic",
      "univer se",
      "C ertain",
      "D o",
      "E very",
      "S outh",
      "V er",
      "c iful",
      "f ro",
      "h ither",
      "i ant",
      "w ound",
      "in fin",
      "on ing",
      "ar ies",
      "he aring",
      "be long",
      "im possible",
      "pe ace",
      "ri bly",
      "man uscript",
      "ant ak",
      "ex ped",
      "um ents",
      "ig nor",
      "co b",
      "co loss",
      "gl ed",
      "where in",
      "des ol",
      "wo re",
      "under ground",
      "rep ul",
      "che mical",
      "rock s",
      "feren ce",
      "bar ri",
      "clim b",
      "exc it",
      "descri be",
      "smo ke",
      "mean ing",
      "mess eng",
      "nam ed",
      "Sh antak",
      "refle cted",
      "compan ion",
      "cliff s",
      "determin ed",
      "uncan ny",
      "poc ket",
      "ghast ly",
      "accord ing",
      "phen omen",
      "fren z",
      "A gain",
      "K ur",
      "M alone",
      "Z o",
      "c ous",
      "f ine",
      "g ather",
      "i ence",
      "o o",
      "p ause",
      "r are",
      "s chool",
      "t ight",
      "v il",
      "re ck",
      "ed en",
      "en er",
      "at en",
      "ar my",
      "ing u",
      "as es",
      "to t",
      "se ction",
      "wh ir",
      "no is",
      "un usual",
      "for get",
      "de ed",
      "lo d",
      "not ed",
      "out lines",
      "con ject",
      "res ult",
      "by gone",
      "could n",
      "ev idence",
      "cl ust",
      "pro v",
      "wor ked",
      "It s",
      "great ly",
      "ach ed",
      "tri but",
      "atch ed",
      "ser ies",
      "rel uct",
      "We eden",
      "ib ility",
      "hel ped",
      "lim it",
      "sim ilar",
      "trad ition",
      "shel ves",
      "Pr of",
      "spl end",
      "track s",
      "King sport",
      "angl es",
      "aband oned",
      "twist ed",
      "ciph er",
      "hes it",
      "A ug",
      "E li",
      "H all",
      "J u",
      "T r",
      "f ail",
      "h on",
      "l at",
      "r out",
      "v ital",
      "y dam",
      "ad s",
      "om s",
      "im ages",
      "ent ities",
      "de m",
      "de eper",
      "de bris",
      "sh if",
      "sh ining",
      "man i",
      "man aged",
      "pl un",
      "tr aver",
      "ak es",
      "ph ant",
      "gl ac",
      "ho le",
      "tre at",
      "el s",
      "iz ens",
      "cent re",
      "door way",
      "ste al",
      "tem ples",
      "spo ken",
      "cap tain",
      "whis pers",
      "plain ly",
      "fall ing",
      "wa x",
      "mag n",
      "alt ar",
      "comm and",
      "frequ ently",
      "Su ydam",
      "Ab out",
      "dimens ions",
      "pie ce",
      "preser ved",
      "sme ll",
      "vac ant",
      "Cy clopean",
      "Sal em",
      "inexplic able",
      "Ol ney",
      "scen es",
      "Aug ust",
      "C th",
      "L at",
      "R o",
      "a we",
      "c it",
      "d ut",
      "d ry",
      "e z",
      "f lying",
      "m ound",
      "m ud",
      "r ail",
      "r ows",
      "s ch",
      "t aver",
      "w n",
      "th re",
      "in x",
      "in ce",
      "in tr",
      "re ar",
      "re search",
      "en or",
      "st ay",
      "ar oused",
      "as y",
      "it ary",
      "wi re",
      "li ps",
      "lo omed",
      "sh iver",
      "ul hu",
      "aw ake",
      "tr ail",
      "gr im",
      "thr ong",
      "cor pse",
      "see ing",
      "head ed",
      "atch es",
      "mer ciful",
      "green ish",
      "scream ing",
      "cons ist",
      "jo ined",
      "ext ent",
      "expl ained",
      "incl uding",
      "reve al",
      "burn ed",
      "apparen t",
      "comp any",
      "Su ch",
      "prim itive",
      "possess ed",
      "sail ors",
      "consider able",
      "swi ft",
      "Egy pt",
      "mani fest",
      "Cth ulhu",
      "N gr",
      "S m",
      "d ul",
      "e en",
      "f ain",
      "l ately",
      "n ers",
      "o let",
      "p all",
      "p end",
      "r im",
      "r ance",
      "s end",
      "t ong",
      "v ig",
      "re le",
      "of ty",
      "st ark",
      "st umbled",
      "or ge",
      "ch er",
      "we eks",
      "wi xt",
      "ab l",
      "ex ha",
      "some where",
      "gr ay",
      "co ast",
      "cur rent",
      "mon o",
      "urn al",
      "In qu",
      "pre c",
      "ens ive",
      "dream ing",
      "think ing",
      "sho ok",
      "cond itions",
      "dec ay",
      "cal cul",
      "og s",
      "dri ve",
      "person al",
      "vi olet",
      "suggest ions",
      "ghoul ish",
      "pow ers",
      "scream ed",
      "bul k",
      "pain ted",
      "deli ri",
      "exp lore",
      "exact ly",
      "design s",
      "immedi ate",
      "quarter s",
      "bir ds",
      "scri pt",
      "veget ation",
      "obser ved",
      "El wood",
      "ilo soph",
      "Ngr anek",
      "exha ust",
      "1 5",
      "B en",
      "H arr",
      "U ni",
      "b en",
      "d ull",
      "f ixed",
      "h az",
      "i li",
      "o pe",
      "p he",
      "r ud",
      "s ad",
      "s way",
      "s war",
      "t end",
      "u ation",
      "th ur",
      "an es",
      "an ok",
      "re ct",
      "as m",
      "is su",
      "se aled",
      "ac le",
      "im ents",
      "ent ed",
      "ve y",
      "ch ants",
      "ur ally",
      "ut ch",
      "ab rup",
      "ro pe",
      "ce re",
      "-- \"",
      "ess or",
      "sh one",
      "per cept",
      "tr aces",
      "us ions",
      "up ward",
      "gr as",
      "av oid",
      "pro gress",
      "bo ard",
      "dis cover",
      "cr az",
      "cur se",
      "ans wered",
      "atter ing",
      "dr agged",
      "flo ated",
      "real ised",
      "Ar ab",
      "col on",
      "min ute",
      "rit ual",
      "beh old",
      "inter val",
      "cal m",
      "ele ment",
      "wood en",
      "ae ons",
      "wa ited",
      "ident ity",
      "friend s",
      "sure ly",
      "sens ation",
      "mark s",
      "remo ved",
      "mid dle",
      "ran on",
      "tru ly",
      "Jo e",
      "remain s",
      "craw ling",
      "direct ly",
      "sli p",
      "supp ly",
      "physic ian",
      "Dun wich",
      "exceed ingly",
      "coloss al",
      "Prof essor",
      "sch ol",
      "Inqu anok",
      "? \"",
      "A c",
      "A pri",
      "P res",
      "R om",
      "R ob",
      "b at",
      "c atch",
      "f ing",
      "f ied",
      "i am",
      "m aster",
      "p inn",
      "t i",
      "t aste",
      "u ced",
      "at or",
      "and s",
      "ad vent",
      "no ct",
      "no ises",
      "un like",
      "ab od",
      "pe t",
      "ul ty",
      "ke en",
      "ap prehens",
      "ast on",
      "aw ed",
      "up stairs",
      "bl ance",
      "fo oth",
      "art ific",
      "less ness",
      "spe ll",
      "mon ster",
      "mon stro",
      "hor se",
      "pre vious",
      "clo thing",
      "dist ingu",
      "ign ed",
      "turn ing",
      "cle an",
      "ial s",
      "Ar thur",
      "rel ation",
      "plan es",
      "sto re",
      "ia h",
      "watch ing",
      "wal king",
      "care ful",
      "fall s",
      "lead er",
      "imag ine",
      "var i",
      "distur b",
      "myster ious",
      "dep th",
      "else where",
      "Be fore",
      "adv anced",
      "specim en",
      "lum inous",
      "develo p",
      "pat ient",
      "antiqu ity",
      "crow d",
      "whar ves",
      "sett led",
      "fair ly",
      "Kur anes",
      "Uni versity",
      "schol ar",
      "Apri l",
      "monstro s",
      "' ,",
      "A tal",
      "C on",
      "H ar",
      "P ar",
      "T illing",
      "a ur",
      "a res",
      "d ue",
      "d azed",
      "m utter",
      "n ause",
      "o per",
      "st ick",
      "as sem",
      "it ch",
      "le ct",
      "no d",
      "no xious",
      "ac y",
      "id ing",
      "ab hor",
      "mo tor",
      "su f",
      "con tain",
      "con cept",
      "pl ess",
      "aw esome",
      "tr ap",
      "us k",
      "um es",
      "ig he",
      "art ist",
      "co smo",
      "mon t",
      "hor ribly",
      "form ing",
      "ang ible",
      "mu ffled",
      "arch ed",
      "flo od",
      "har m",
      "pass ing",
      "ru ined",
      "bet wixt",
      "rit es",
      "cont ro",
      "mom ents",
      "queer ly",
      "war ning",
      "ga thered",
      "sup pose",
      "giv ing",
      "interest ed",
      "descri ption",
      "del icate",
      "burn ing",
      "deli ber",
      "repor ts",
      "kno ck",
      "corrid ors",
      "san ity",
      "crown ed",
      "etern al",
      "degre e",
      "regard ing",
      "instr uments",
      "nois ome",
      "Tilling hast",
      "C r",
      "C eleph",
      "G er",
      "I ranon",
      "M any",
      "M arch",
      "M ore",
      "N ature",
      "O N",
      "S ab",
      "d ate",
      "f ath",
      "l ap",
      "l oud",
      "l ofty",
      "m ult",
      "o ts",
      "p ical",
      "p ier",
      "s al",
      "ll en",
      "wi z",
      "un conscious",
      "li v",
      "me ter",
      "ri st",
      "my ths",
      "res pect",
      "res ults",
      "po tent",
      "per mit",
      "gre t",
      "sp in",
      "sp aces",
      "do es",
      "when ever",
      "op posite",
      "com es",
      "dis cer",
      "dis gust",
      "down ward",
      "men ace",
      "wind s",
      "day light",
      "fin ished",
      "gu arded",
      "tri um",
      "ner ves",
      "mar ine",
      "cri b",
      "sol ution",
      "bor ing",
      "bas alt",
      "gener ally",
      "dri ven",
      "sleep ing",
      "clim bing",
      "tou ched",
      "flash light",
      "rum ours",
      "recogn ised",
      "fort un",
      "free ly",
      "trave l",
      "west ward",
      "17 6",
      "strong er",
      "equ ally",
      "Ab dul",
      "wait ing",
      "import ance",
      "pill ars",
      "laugh ed",
      "baf fling",
      "tun nel",
      "Joh n",
      "rot ting",
      "wing ed",
      "commun ic",
      "cott age",
      "Will iam",
      "barri er",
      "Ju ly",
      "enor mous",
      "Sm ith",
      "Harr is",
      "noct urnal",
      "Celeph ais",
      "G ate",
      "O c",
      "a ight",
      "d omin",
      "f al",
      "f ight",
      "f ate",
      "g ri",
      "g ently",
      "h om",
      "m ies",
      "n es",
      "n igh",
      "p ure",
      "r av",
      "r ical",
      "y le",
      "y ards",
      "in finite",
      "the s",
      "re gret",
      "st ag",
      "st ances",
      "as ide",
      "ad vis",
      "se at",
      "se ld",
      "be ast",
      "ac he",
      "ent er",
      "ent rance",
      "ch ill",
      "de test",
      "de finitely",
      "ag ues",
      "ul ate",
      "so le",
      "fo et",
      "gr ace",
      "end s",
      "co ol",
      "know ing",
      "br own",
      "bo at",
      "ite ct",
      "fl at",
      "mad den",
      "di e",
      "ren ch",
      "fin ed",
      "ped est",
      "mind ed",
      "tem por",
      "sk ill",
      "sil ently",
      "rel ated",
      "cri es",
      "moun ted",
      "rep ort",
      "mem bers",
      "heav en",
      "che ap",
      "pri v",
      "sens itive",
      "qui red",
      "folk lore",
      "peculiar ly",
      "myster ies",
      "crypt ic",
      "lur king",
      "thro at",
      "exper iment",
      "stu ff",
      "immedi ately",
      "occasion ally",
      "inqu ir",
      "escap ed",
      "stair case",
      "sav age",
      "infin ity",
      "cosmo s",
      "seld om",
      "B ir",
      "D uring",
      "K al",
      "b i",
      "b bed",
      "b ung",
      "d aughter",
      "d usk",
      "g ates",
      "i ally",
      "k ill",
      "l ined",
      "m at",
      "n ine",
      "p i",
      "p icked",
      "r ous",
      "r ich",
      "r aid",
      "w ave",
      "w anted",
      "y l",
      "the tic",
      "an while",
      "at ors",
      "or k",
      "al og",
      "ac c",
      "ac id",
      "ac cept",
      "ac compl",
      "am ount",
      "un wholesome",
      "ab ility",
      "ce ase",
      "ir regular",
      "ke ts",
      "one y",
      "po et",
      "per ceived",
      "em p",
      "str aight",
      "gr an",
      "af fected",
      "com for",
      "go ss",
      "est abl",
      "iv ory",
      "cre aking",
      "pre viously",
      "ob vious",
      "Wh y",
      "ry s",
      "bu b",
      "cour t",
      "ene tr",
      "fear some",
      "nat ives",
      "sl ab",
      "ru in",
      "poss ibly",
      "ash ing",
      "say ing",
      "bur y",
      "inc ident",
      "Gre en",
      "Some times",
      "pu shed",
      "dri f",
      "faint ly",
      "dro p",
      "aut um",
      "mid st",
      "comple x",
      "omin ous",
      "trem endous",
      "recogn ized",
      "Nor rys",
      "strang eness",
      "trave ll",
      "viol ently",
      "craw led",
      "neigh bour",
      "fash ioned",
      "repor ted",
      "leap ed",
      "neare st",
      "circum stance",
      "Me anwhile",
      "preci pit",
      "fever ish",
      "chim ney",
      "coll ap",
      "proport ion",
      "beam s",
      "fasc in",
      "paren ts",
      "exped ition",
      "Zo ogs",
      "bung al",
      "\" '",
      ", '",
      "A fr",
      "F en",
      "M us",
      "N ig",
      "Y ork",
      "b a",
      "d ance",
      "d ying",
      "g aze",
      "h ol",
      "j un",
      "o graph",
      "r ant",
      "s of",
      "s ailed",
      "an xious",
      "re ver",
      "re rs",
      "at tribut",
      "st if",
      "no body",
      "im m",
      "im memor",
      "un k",
      "de light",
      "sh own",
      "ap ed",
      "ap ing",
      "con tained",
      "qu is",
      "ex ter",
      "ph ilosoph",
      "spe ed",
      "go th",
      "fl es",
      "fl am",
      "mon th",
      "ens ion",
      "ick ing",
      "dream er",
      "el ing",
      "call ing",
      "arch itect",
      "real ms",
      "hill side",
      "sl aves",
      "mer chants",
      "reach ing",
      "app ar",
      "bor o",
      "rid ge",
      "stru ction",
      "lear n",
      "repe ll",
      "num erous",
      "aster n",
      "usu ally",
      "flash ed",
      "quiet ly",
      "por tr",
      "frantic ally",
      "shape less",
      "crypt ical",
      "concer ned",
      "country side",
      "bad ly",
      "Br attle",
      "desc end",
      "shrie ked",
      "angl ed",
      "mach ine",
      "bir th",
      "myst ic",
      "formul ae",
      "phosphores cent",
      "represent ed",
      "tin y",
      "claim ed",
      "sac rif",
      "fiend ish",
      "susp ic",
      "suff ic",
      "teleph one",
      "prin ci",
      "hither to",
      "messeng er",
      "rout e",
      "Bir ch",
      "bungal ow",
      "Brattle boro",
      "C ol",
      "E ur",
      "F rench",
      "G u",
      "G ugs",
      "P ri",
      "S ph",
      "S ud",
      "T er",
      "W he",
      "c red",
      "f an",
      "g it",
      "h at",
      "h ateful",
      "j agged",
      "l ake",
      "m ix",
      "n u",
      "p aid",
      "p yramid",
      "u me",
      "w inter",
      "y ield",
      "in tense",
      "an thro",
      "re r",
      "st aring",
      "or ph",
      "it em",
      "is s",
      "se vent",
      "om al",
      "ch ain",
      "am b",
      "for ty",
      "de cor",
      "pe as",
      "sh op",
      "ri g",
      "po p",
      "po ison",
      "tr ick",
      "us ive",
      "et te",
      "if ice",
      "ev ed",
      "sp ap",
      "do ing",
      "ive red",
      "co here",
      "pro of",
      "fore ver",
      "dis quiet",
      "gl it",
      "any one",
      "ance str",
      "night s",
      "di al",
      "ue l",
      "dream land",
      "see king",
      "den ly",
      "vo y",
      "dr ag",
      "ef fort",
      "je cted",
      "sub tly",
      "sub sequ",
      "... \"",
      "att ack",
      "wild ly",
      "quest ioned",
      "par al",
      "fur y",
      "ae on",
      "colle ction",
      "conne ction",
      "descri bed",
      "incl ined",
      "wr ite",
      "olog y",
      "wit ness",
      "run ning",
      "beaut iful",
      "short ly",
      "sit uation",
      "pie ces",
      "animal s",
      "grou ps",
      "pen gu",
      "import ant",
      "echo es",
      "revel ation",
      "clut ched",
      "mechan ical",
      "influ ence",
      "doubted ly",
      "Is land",
      "vist as",
      "mono li",
      "abrup tly",
      "artific ial",
      "gran ite",
      "Sph inx",
      "Sud denly",
      "3 0",
      "A T",
      "D y",
      "H igh",
      "J an",
      "N ever",
      "P abod",
      "S arn",
      "b its",
      "b ird",
      "f ly",
      "i um",
      "j or",
      "l ou",
      "m ile",
      "p aws",
      "p enetr",
      "r on",
      "r at",
      "t ones",
      "v as",
      "w ond",
      "er able",
      "en ced",
      "at mo",
      "at us",
      "st ors",
      "or n",
      "to ad",
      "it ure",
      "wh ip",
      "gh ost",
      "ac ious",
      "ch ise",
      "ab sur",
      "for ces",
      "de f",
      "de em",
      "mo ss",
      "ne ls",
      "ke st",
      "su pre",
      "man ship",
      "po t",
      "fo od",
      "sp ires",
      "ok ing",
      "cl er",
      "af ar",
      "dis played",
      "cr ag",
      "ance stors",
      "new spap",
      "In deed",
      "cre w",
      "tal king",
      "ber t",
      "ber ing",
      "ans en",
      "col oured",
      "sub tle",
      "sl im",
      "sk ull",
      "eng ulf",
      "inter ior",
      "sto ck",
      "cu red",
      "bor ne",
      "bre athing",
      "dim ly",
      "fle e",
      "cry stal",
      "org ans",
      "road s",
      "sw amp",
      "smo oth",
      "incl uded",
      "accoun ts",
      "guess ed",
      "cross ing",
      "suc ceeded",
      "brid ges",
      "cloud y",
      "colum n",
      "titan ic",
      "charac ters",
      "hur t",
      "cust omed",
      "fa ith",
      "vain ly",
      "resem blance",
      "assu red",
      "Pe ople",
      "phosphores cence",
      "War ren",
      "absolute ly",
      "stup endous",
      "increas ing",
      "Mart ense",
      "chang es",
      "histor ic",
      "Ver mont",
      "cere mon",
      "interval s",
      "Rob ert",
      "footh ills",
      "comfor table",
      "repell ent",
      "Pabod ie",
      "Sarn ath",
      "absur d",
      "C om",
      "F e",
      "F ir",
      "L and",
      "M c",
      "M ountain",
      "P h",
      "S later",
      "T own",
      "e h",
      "f are",
      "i ently",
      "j um",
      "l ain",
      "o ak",
      "p ane",
      "r ays",
      "s ank",
      "t ask",
      "u ary",
      "y es",
      "th ou",
      "in ch",
      "in ally",
      "in conceivable",
      "the ory",
      "an omal",
      "st out",
      "al oud",
      "as cent",
      "he res",
      "it er",
      "le ts",
      "ac customed",
      "im men",
      "am ped",
      "we ather",
      "un less",
      "de cre",
      "lo ved",
      "ess ed",
      "me th",
      "sh ivered",
      "out line",
      "su itable",
      "ill usion",
      "per man",
      "tr ust",
      "us es",
      "str ick",
      "str ained",
      "gr asp",
      "sp ital",
      "art s",
      "av ag",
      "pro ject",
      "over head",
      "fl ung",
      "clo thes",
      "ign y",
      "den se",
      "land sc",
      "ree f",
      "ser ious",
      "pass ages",
      "oc cup",
      "med ical",
      "gen u",
      "Mar igny",
      "cap able",
      "heav ily",
      "che st",
      "port ent",
      "hy ster",
      "ali ke",
      "glimp ses",
      "ma them",
      "fac ts",
      "scr am",
      "cat ac",
      "sat is",
      "thousand s",
      "exp lo",
      "lur ked",
      "grow th",
      "extr avag",
      "shrie king",
      "furn iture",
      "remark able",
      "love ly",
      "symbol s",
      "admit ted",
      "desper ate",
      "diffic ult",
      "diffic ulty",
      "const antly",
      "slant ing",
      "virt ually",
      "Certain ly",
      "excit ement",
      "dut y",
      "craz y",
      "Ger man",
      "priv ate",
      "autum n",
      "Afr ic",
      "Mus ides",
      "immemor ial",
      "immen se",
      "1 0",
      "B o",
      "E ast",
      "F inally",
      "L ond",
      "T em",
      "W or",
      "Y og",
      "f ires",
      "g s",
      "k ne",
      "m ally",
      "m ask",
      "s ard",
      "z ai",
      "in habit",
      "re su",
      "on se",
      "of fered",
      "st ared",
      "ing ing",
      "es crib",
      "it ation",
      "ad o",
      "ad es",
      "se am",
      "ic ated",
      "be ll",
      "li k",
      "li qu",
      "ut ed",
      "ag ers",
      "ne st",
      "sh aken",
      "sh aft",
      "not ion",
      "oun ced",
      "my ri",
      "od y",
      "qu ar",
      "res er",
      "ind escrib",
      "gr u",
      "gr am",
      "sp heres",
      "do om",
      "cl um",
      "pro ble",
      "dis ap",
      "pr int",
      "thr own",
      "spe aking",
      "pres ently",
      "In stead",
      "cre st",
      "pre vent",
      "ho ly",
      "cent er",
      "gu est",
      "gu ided",
      "int ens",
      "imp ly",
      "oc cult",
      "rel ative",
      "We ll",
      "os en",
      "sight s",
      "rep ly",
      "spec ies",
      "war m",
      "window less",
      "imag ined",
      "hy p",
      "char ge",
      "doubt less",
      "resp onse",
      "repe at",
      "return ing",
      "trem bled",
      "mean while",
      "abs or",
      "mass ive",
      "power ful",
      "fif teen",
      "surviv ed",
      "sor ts",
      "extr a",
      "wri g",
      "rap idly",
      "Joh ansen",
      "heal th",
      "heal thy",
      "ref used",
      "decad ent",
      "hieroglyph s",
      "emer ged",
      "song s",
      "unmistak ably",
      "jour ney",
      "tong ue",
      "trium ph",
      "Dy lath",
      "supre me",
      "Fir st",
      "strick en",
      "Lond on",
      "! '",
      "1 2",
      "D on",
      "E R",
      "H athe",
      "H utch",
      "N ar",
      "S oth",
      "b attle",
      "e th",
      "h ou",
      "h us",
      "i en",
      "l on",
      "l av",
      "l aws",
      "m ber",
      "n in",
      "p ile",
      "s ke",
      "s well",
      "t a",
      "w ed",
      "w id",
      "ed eral",
      "en velo",
      "at tr",
      "at ives",
      "st ers",
      "st ained",
      "al arm",
      "to day",
      "to tal",
      "ic ted",
      "be ck",
      "ac cent",
      "ac ute",
      "ch or",
      "un believ",
      "un expected",
      "un doubtedly",
      "un holy",
      "ab road",
      "ab aout",
      "ce iling",
      "lo c",
      "ne gle",
      "sh owing",
      "ri al",
      "qu al",
      "pl ans",
      "ex cell",
      "old en",
      "sc ience",
      "ish ment",
      "co st",
      "pro ceeded",
      "ph r",
      "other wise",
      "cr ack",
      "seem ingly",
      "night ed",
      "new ly",
      "cre pt",
      "dist orted",
      "cent ric",
      "ty pical",
      "back ward",
      "ste e",
      "ste ll",
      "Ar ch",
      "sound ed",
      "sub terr",
      "nat urally",
      "att end",
      "sl um",
      "ash ed",
      "sil hou",
      "gro ves",
      "app all",
      "lar ger",
      "wild er",
      "sum mit",
      "pos itive",
      "vol ume",
      "cir cular",
      "ga i",
      "bes ides",
      "eas e",
      "pit ch",
      "desp air",
      "scream s",
      "boy hood",
      "foot prints",
      "peak ed",
      "happ en",
      "serv ant",
      "shri ek",
      "familiar ity",
      "ma jor",
      "continu ous",
      "wr ought",
      "shew n",
      "approach ing",
      "grand mother",
      "remain ing",
      "trou bled",
      "lan es",
      "lan tern",
      "direct ions",
      "bring ing",
      "Le en",
      "signific ant",
      "terr aces",
      "192 8",
      "Bar zai",
      "circum stances",
      "dom es",
      "mock ing",
      "unmistak able",
      "separ ate",
      "cab in",
      "ratt ling",
      "plun ged",
      "discer n",
      "acc ident",
      "Hathe g",
      "Hutch ins",
      "subterr ane",
      "A ir",
      "C our",
      "F ederal",
      "I V",
      "J une",
      "L ook",
      "S till",
      "a er",
      "d art",
      "e aten",
      "f aded",
      "f ountain",
      "g li",
      "g azed",
      "g orge",
      "i able",
      "p ave",
      "p oured",
      "r ul",
      "r ate",
      "s ive",
      "t ough",
      "t ort",
      "x im",
      "th rew",
      "an aly",
      "re pt",
      "re ared",
      "re quest",
      "st ayed",
      "to ber",
      "he ed",
      "it ting",
      "wh ist",
      "ent ering",
      "id ious",
      "id ual",
      "we ed",
      "for d",
      "fr u",
      "fr ame",
      "ess ent",
      "ne ther",
      "ne ck",
      "sh ared",
      "pl aying",
      "aw aked",
      "ex press",
      "ex otic",
      "ound ing",
      "so il",
      "sp ite",
      "co x",
      "cl aws",
      "would n",
      "bo g",
      "dis sol",
      "des ire",
      "mon ot",
      "nor mally",
      "sm al",
      "ple x",
      "land ing",
      "house hold",
      "under stood",
      "set tle",
      "imp ul",
      "ven ge",
      "ru shed",
      "mar sh",
      "ict ion",
      "sun ken",
      "wild est",
      "tor ches",
      "town s",
      "squ al",
      "fle w",
      "war ned",
      "wal ks",
      "person ality",
      "inte l",
      "sens ations",
      "keep ing",
      "sup posed",
      "north ward",
      "hold ing",
      "reason s",
      "lim ited",
      "adv ance",
      "bol t",
      "fire place",
      "craw l",
      "fit ted",
      "prom ise",
      "athe d",
      "sit ting",
      "sor ry",
      "rough ly",
      "cham bers",
      "uni vers",
      "gar ret",
      "assu med",
      "cand le",
      "insist ed",
      "damn able",
      "cop y",
      "evol ution",
      "artic ulate",
      "fung i",
      "tw ice",
      "yaw ning",
      "psycholog ical",
      "dang er",
      "arrange ment",
      "summon ed",
      "ighe st",
      "meter y",
      "Oc tober",
      "Kal os",
      "goss ip",
      "Fen ner",
      "fles h",
      "wond ers",
      "atmo sphere",
      "sard onic",
      "Soth oth",
      "Air a",
      "G ard",
      "K he",
      "T ow",
      "W here",
      "Y ad",
      "Y ug",
      "b ath",
      "b ade",
      "b aying",
      "d led",
      "d ug",
      "f ed",
      "g iant",
      "h un",
      "h ighest",
      "m uttered",
      "p age",
      "r age",
      "s om",
      "t ies",
      "t angible",
      "v or",
      "w in",
      "z ed",
      "in ches",
      "ed ifice",
      "st ol",
      "st age",
      "ar a",
      "it es",
      "it ious",
      "is ol",
      "ad mir",
      "se ason",
      "ic y",
      "was n",
      "im pressed",
      "ch osen",
      "am ed",
      "am ent",
      "am orph",
      "un able",
      "un pleasant",
      "li ves",
      "ut most",
      "ter rest",
      "de ter",
      "fr on",
      "fr ank",
      "lo se",
      "me ad",
      "ne bul",
      "su llen",
      "con vent",
      "res c",
      "man tel",
      "te cted",
      "aw k",
      "per plex",
      "ev al",
      "sc ale",
      "ble ak",
      "do cum",
      "ph ren",
      "br ink",
      "bo arded",
      "dis liked",
      "pr on",
      "au di",
      "ance stor",
      "ho ary",
      "ho spital",
      "di th",
      "how ling",
      "dist r",
      "hu shed",
      "lit er",
      "atter s",
      "off er",
      "off ice",
      "dr ug",
      "int act",
      "bod ily",
      "set ting",
      "every one",
      "tem per",
      "mer chant",
      "arr anged",
      "small er",
      "rit ch",
      "cont ents",
      "stud io",
      "ster n",
      "moun ting",
      "Wil cox",
      "val ise",
      "cap tive",
      "hel pless",
      "object ive",
      "fur ry",
      "wood ed",
      "No yes",
      "vi br",
      "pit iful",
      "should er",
      "stead ily",
      "var ied",
      "terror s",
      "eld ritch",
      "ris en",
      "va ul",
      "valley s",
      "ench anted",
      "tran sm",
      "aff air",
      "surviv ing",
      "caver ns",
      "antiqu arian",
      "exper iments",
      "chant ing",
      "mach ines",
      "depart ed",
      "wel come",
      "veget able",
      "pon der",
      "formul a",
      "conce aled",
      "cand les",
      "lu ck",
      "bark ed",
      "wan ing",
      "ec centric",
      "explan ation",
      "limit less",
      "taver ns",
      "pall id",
      "prec ise",
      "pinn acles",
      "suf fered",
      "sof tly",
      "appar atus",
      "Whe ther",
      "anthro po",
      "paral le",
      "slim y",
      "indescrib able",
      "Yad dith",
      "Yug goth",
      "A no",
      "C an",
      "D ou",
      "M u",
      "M en",
      "O ri",
      "P yramid",
      "R iver",
      "S at",
      "S ep",
      "U pon",
      "Z ad",
      "b atter",
      "b bing",
      "c aves",
      "d ome",
      "e motions",
      "f umbling",
      "g ib",
      "g ables",
      "g amb",
      "h ing",
      "j ac",
      "l oft",
      "m as",
      "m ast",
      "m um",
      "m akes",
      "o bl",
      "s ions",
      "s aved"
    ]
  }
}